<unk>	0
<s>	0
</s>	0
<pad>	0
<0x00>	0
<0x01>	0
<0x02>	0
<0x03>	0
<0x04>	0
<0x05>	0
<0x06>	0
<0x07>	0
<0x08>	0
<0x09>	0
<0x0A>	0
<0x0B>	0
<0x0C>	0
<0x0D>	0
<0x0E>	0
<0x0F>	0
<0x10>	0
<0x11>	0
<0x12>	0
<0x13>	0
<0x14>	0
<0x15>	0
<0x16>	0
<0x17>	0
<0x18>	0
<0x19>	0
<0x1A>	0
<0x1B>	0
<0x1C>	0
<0x1D>	0
<0x1E>	0
<0x1F>	0
<0x20>	0
<0x21>	0
<0x22>	0
<0x23>	0
<0x24>	0
<0x25>	0
<0x26>	0
<0x27>	0
<0x28>	0
<0x29>	0
<0x2A>	0
<0x2B>	0
<0x2C>	0
<0x2D>	0
<0x2E>	0
<0x2F>	0
<0x30>	0
<0x31>	0
<0x32>	0
<0x33>	0
<0x34>	0
<0x35>	0
<0x36>	0
<0x37>	0
<0x38>	0
<0x39>	0
<0x3A>	0
<0x3B>	0
<0x3C>	0
<0x3D>	0
<0x3E>	0
<0x3F>	0
<0x40>	0
<0x41>	0
<0x42>	0
<0x43>	0
<0x44>	0
<0x45>	0
<0x46>	0
<0x47>	0
<0x48>	0
<0x49>	0
<0x4A>	0
<0x4B>	0
<0x4C>	0
<0x4D>	0
<0x4E>	0
<0x4F>	0
<0x50>	0
<0x51>	0
<0x52>	0
<0x53>	0
<0x54>	0
<0x55>	0
<0x56>	0
<0x57>	0
<0x58>	0
<0x59>	0
<0x5A>	0
<0x5B>	0
<0x5C>	0
<0x5D>	0
<0x5E>	0
<0x5F>	0
<0x60>	0
<0x61>	0
<0x62>	0
<0x63>	0
<0x64>	0
<0x65>	0
<0x66>	0
<0x67>	0
<0x68>	0
<0x69>	0
<0x6A>	0
<0x6B>	0
<0x6C>	0
<0x6D>	0
<0x6E>	0
<0x6F>	0
<0x70>	0
<0x71>	0
<0x72>	0
<0x73>	0
<0x74>	0
<0x75>	0
<0x76>	0
<0x77>	0
<0x78>	0
<0x79>	0
<0x7A>	0
<0x7B>	0
<0x7C>	0
<0x7D>	0
<0x7E>	0
<0x7F>	0
<0x80>	0
<0x81>	0
<0x82>	0
<0x83>	0
<0x84>	0
<0x85>	0
<0x86>	0
<0x87>	0
<0x88>	0
<0x89>	0
<0x8A>	0
<0x8B>	0
<0x8C>	0
<0x8D>	0
<0x8E>	0
<0x8F>	0
<0x90>	0
<0x91>	0
<0x92>	0
<0x93>	0
<0x94>	0
<0x95>	0
<0x96>	0
<0x97>	0
<0x98>	0
<0x99>	0
<0x9A>	0
<0x9B>	0
<0x9C>	0
<0x9D>	0
<0x9E>	0
<0x9F>	0
<0xA0>	0
<0xA1>	0
<0xA2>	0
<0xA3>	0
<0xA4>	0
<0xA5>	0
<0xA6>	0
<0xA7>	0
<0xA8>	0
<0xA9>	0
<0xAA>	0
<0xAB>	0
<0xAC>	0
<0xAD>	0
<0xAE>	0
<0xAF>	0
<0xB0>	0
<0xB1>	0
<0xB2>	0
<0xB3>	0
<0xB4>	0
<0xB5>	0
<0xB6>	0
<0xB7>	0
<0xB8>	0
<0xB9>	0
<0xBA>	0
<0xBB>	0
<0xBC>	0
<0xBD>	0
<0xBE>	0
<0xBF>	0
<0xC0>	0
<0xC1>	0
<0xC2>	0
<0xC3>	0
<0xC4>	0
<0xC5>	0
<0xC6>	0
<0xC7>	0
<0xC8>	0
<0xC9>	0
<0xCA>	0
<0xCB>	0
<0xCC>	0
<0xCD>	0
<0xCE>	0
<0xCF>	0
<0xD0>	0
<0xD1>	0
<0xD2>	0
<0xD3>	0
<0xD4>	0
<0xD5>	0
<0xD6>	0
<0xD7>	0
<0xD8>	0
<0xD9>	0
<0xDA>	0
<0xDB>	0
<0xDC>	0
<0xDD>	0
<0xDE>	0
<0xDF>	0
<0xE0>	0
<0xE1>	0
<0xE2>	0
<0xE3>	0
<0xE4>	0
<0xE5>	0
<0xE6>	0
<0xE7>	0
<0xE8>	0
<0xE9>	0
<0xEA>	0
<0xEB>	0
<0xEC>	0
<0xED>	0
<0xEE>	0
<0xEF>	0
<0xF0>	0
<0xF1>	0
<0xF2>	0
<0xF3>	0
<0xF4>	0
<0xF5>	0
<0xF6>	0
<0xF7>	0
<0xF8>	0
<0xF9>	0
<0xFA>	0
<0xFB>	0
<0xFC>	0
<0xFD>	0
<0xFE>	0
<0xFF>	0
▁t	-0
▁a	-1
in	-2
he	-3
re	-4
on	-5
er	-6
▁the	-7
▁s	-8
at	-9
or	-10
en	-11
▁w	-12
▁c	-13
it	-14
nd	-15
es	-16
▁o	-17
is	-18
▁f	-19
▁▁	-20
ing	-21
ou	-22
an	-23
▁p	-24
▁b	-25
al	-26
ed	-27
ar	-28
▁to	-29
▁in	-30
▁m	-31
▁and	-32
▁of	-33
ic	-34
▁d	-35
le	-36
ion	-37
as	-38
om	-39
▁h	-40
.\	-41
il	-42
▁th	-43
ent	-44
st	-45
ro	-46
▁l	-47
el	-48
▁re	-49
ct	-50
et	-51
▁n	-52
▁S	-53
▁▁▁▁	-54
▁e	-55
▁T	-56
ve	-57
▁g	-58
id	-59
▁C	-60
▁I	-61
▁A	-62
ut	-63
▁y	-64
ol	-65
▁is	-66
\"	-67
am	-68
ur	-69
▁for	-70
ot	-71
▁on	-72
ay	-73
ow	-74
ac	-75
ad	-76
us	-77
im	-78
ly	-79
ig	-80
▁be	-81
ver	-82
ation	-83
▁M	-84
▁you	-85
▁st	-86
ith	-87
ir	-88
ch	-89
▁P	-90
▁that	-91
ce	-92
▁B	-93
▁with	-94
un	-95
ers	-96
ul	-97
▁it	-98
▁he	-99
ra	-100
ill	-101
▁al	-102
se	-103
▁an	-104
ter	-105
te	-106
▁as	-107
▁D	-108
▁W	-109
if	-110
▁H	-111
▁wh	-112
ag	-113
▁pro	-114
▁F	-115
▁R	-116
▁con	-117
▁(	-118
ment	-119
est	-120
ri	-121
ate	-122
od	-123
pp	-124
▁are	-125
ke	-126
▁com	-127
ess	-128
ab	-129
ew	-130
▁L	-131
th	-132
▁we	-133
her	-134
▁de	-135
▁at	-136
ist	-137
▁ha	-138
op	-139
ore	-140
▁The	-141
▁N	-142
▁v	-143
rom	-144
▁E	-145
▁G	-146
ld	-147
ity	-148
▁\	-149
▁or	-150
ort	-151
um	-152
igh	-153
▁ex	-154
qu	-155
res	-156
▁se	-157
oc	-158
and	-159
▁was	-160
os	-161
em	-162
art	-163
nT	-164
▁r	-165
ant	-166
ies	-167
▁▁▁▁▁▁▁▁	-168
ain	-169
▁from	-170
nt	-171
ust	-172
▁by	-173
▁\"	-174
pe	-175
ive	-176
iv	-177
▁su	-178
▁O	-179
xt	-180
▁this	-181
end	-182
▁have	-183
ud	-184
▁J	-185
▁ch	-186
all	-187
▁sh	-188
ard	-189
our	-190
ight	-191
▁u	-192
ear	-193
▁us	-194
▁can	-195
▁not	-196
▁le	-197
ost	-198
▁{	-199
red	-200
ial	-201
▁wor	-202
▁will	-203
▁your	-204
ge	-205
out	-206
ome	-207
▁pl	-208
▁U	-209
rou	-210
ell	-211
ack	-212
og	-213
ast	-214
ok	-215
ak	-216
ction	-217
ine	-218
▁has	-219
ould	-220
age	-221
▁ab	-222
ure	-223
ide	-224
per	-225
gh	-226
▁j	-227
pt	-228
pl	-229
ff	-230
text	-231
▁all	-232
ice	-233
nThe	-234
ich	-235
nA	-236
ia	-237
▁k	-238
▁ne	-239
ber	-240
ie	-241
▁ad	-242
ect	-243
":	-244
"}	-245
▁{"	-246
▁"	-247
▁en	-248
are	-249
ry	-250
ame	-251
ip	-252
▁do	-253
▁go	-254
▁K	-255
▁comp	-256
▁whe	-257
ong	-258
ally	-259
ue	-260
ind	-261
ub	-262
ated	-263
▁cl	-264
able	-265
ans	-266
cc	-267
▁In	-268
▁but	-269
iz	-270
ther	-271
ook	-272
orm	-273
▁their	-274
ass	-275
nI	-276
▁St	-277
▁out	-278
cl	-279
ime	-280
ake	-281
ous	-282
ep	-283
ary	-284
one	-285
▁im	-286
ap	-287
▁more	-288
▁up	-289
ult	-290
ace	-291
▁me	-292
so	-293
▁sa	-294
;\	-295
▁un	-296
ire	-297
▁V	-298
ions	-299
ance	-300
very	-301
ite	-302
▁Th	-303
▁his	-304
▁they	-305
ail	-306
▁tr	-307
ib	-308
ign	-309
▁work	-310
▁so	-311
▁cont	-312
act	-313
du	-314
▁one	-315
port	-316
ile	-317
ase	-318
▁te	-319
▁res	-320
ach	-321
▁new	-322
ations	-323
▁who	-324
▁which	-325
▁our	-326
▁Ch	-327
av	-328
▁man	-329
▁int	-330
ord	-331
▁year	-332
▁app	-333
▁Y	-334
▁about	-335
ru	-336
▁off	-337
vel	-338
ount	-339
ark	-340
nS	-341
ical	-342
erv	-343
▁per	-344
form	-345
▁also	-346
ick	-347
▁li	-348
ays	-349
ll	-350
▁qu	-351
ree	-352
reat	-353
ence	-354
ond	-355
▁ar	-356
▁my	-357
▁-	-358
ne	-359
int	-360
▁part	-361
▁sp	-362
own	-363
ents	-364
ition	-365
nW	-366
ors	-367
ress	-368
)\	-369
▁ev	-370
vers	-371
ob	-372
▁other	-373
ild	-374
ov	-375
▁dis	-376
ose	-377
ens	-378
mer	-379
ere	-380
▁been	-381
ory	-382
ove	-383
..	-384
ely	-385
▁time	-386
lic	-387
▁its	-388
ings	-389
▁rec	-390
▁ag	-391
▁sc	-392
▁=	-393
▁get	-394
ound	-395
▁It	-396
▁ro	-397
▁over	-398
."}	-399
ish	-400
ian	-401
irst	-402
▁pe	-403
ang	-404
ks	-405
▁her	-406
▁some	-407
▁were	-408
▁any	-409
▁them	-410
oy	-411
▁when	-412
▁like	-413
▁said	-414
▁there	-415
nC	-416
ood	-417
fter	-418
ec	-419
urn	-420
▁acc	-421
▁pre	-422
▁would	-423
▁kn	-424
▁had	-425
▁'	-426
wn	-427
▁than	-428
ople	-429
old	-430
oll	-431
anc	-432
clud	-433
ade	-434
▁des	-435
ough	-436
ool	-437
▁if	-438
▁comm	-439
ric	-440
use	-441
com	-442
▁am	-443
▁what	-444
▁into	-445
▁fe	-446
iew	-447
ater	-448
▁need	-449
rough	-450
nB	-451
ram	-452
rit	-453
▁tw	-454
nder	-455
ont	-456
tern	-457
ons	-458
▁first	-459
▁just	-460
ates	-461
ph	-462
.\"	-463
▁spe	-464
hed	-465
▁$	-466
nM	-467
ink	-468
▁how	-469
ject	-470
ng	-471
▁He	-472
ual	-473
▁people	-474
ments	-475
amp	-476
nP	-477
ft	-478
ck	-479
ning	-480
ious	-481
ational	-482
▁We	-483
▁add	-484
▁prov	-485
▁Un	-486
ef	-487
iss	-488
get	-489
▁includ	-490
▁no	-491
▁bec	-492
iff	-493
aw	-494
▁ind	-495
?\	-496
,\"	-497
ss	-498
ities	-499
enc	-500
lp	-501
pport	-502
round	-503
▁she	-504
we	-505
nF	-506
day	-507
lect	-508
nH	-509
ath	-510
▁most	-511
▁bu	-512
),	-513
);\	-514
▁help	-515
les	-516
▁serv	-517
▁bl	-518
▁em	-519
ert	-520
ise	-521
▁bet	-522
▁only	-523
tt	-524
▁through	-525
▁This	-526
▁Re	-527
▁co	-528
▁two	-529
▁after	-530
▁make	-531
ating	-532
▁play	-533
ock	-534
▁under	-535
▁&	-536
▁act	-537
row	-538
hen	-539
▁produ	-540
▁fl	-541
ring	-542
ific	-543
ting	-544
//	-545
▁years	-546
eth	-547
▁stud	-548
any	-549
yst	-550
ublic	-551
als	-552
olog	-553
▁cons	-554
▁back	-555
nD	-556
ife	-557
ward	-558
▁look	-559
li	-560
▁well	-561
ange	-562
▁col	-563
▁inv	-564
▁may	-565
▁imp	-566
ident	-567
ork	-568
nc	-569
▁New	-570
▁Com	-571
▁pr	-572
ata	-573
ause	-574
io	-575
ts	-576
▁every	-577
▁use	-578
--	-579
▁know	-580
▁want	-581
ily	-582
▁reg	-583
▁tra	-584
elf	-585
oth	-586
ased	-587
ful	-588
oint	-589
▁see	-590
▁ph	-591
iness	-592
hip	-593
▁set	-594
velop	-595
!\	-596
pect	-597
und	-598
uring	-599
▁fin	-600
▁diff	-601
▁these	-602
ics	-603
}\	-604
▁many	-605
ices	-606
arch	-607
▁sec	-608
erm	-609
cial	-610
▁Pro	-611
ited	-612
▁where	-613
chool	-614
up	-615
▁exper	-616
▁could	-617
ures	-618
rib	-619
oss	-620
cess	-621
ener	-622
nO	-623
ict	-624
▁▁▁	-625
ystem	-626
erson	-627
▁inc	-628
ility	-629
▁rem	-630
usiness	-631
▁ass	-632
nR	-633
alth	-634
ible	-635
▁ent	-636
▁ke	-637
riv	-638
ull	-639
ivers	-640
aking	-641
land	-642
uch	-643
▁way	-644
).	-645
ience	-646
hat	-647
▁att	-648
▁You	-649
▁ac	-650
▁now	-651
bs	-652
ular	-653
:\	-654
▁rel	-655
ower	-656
.\"\	-657
ys	-658
ract	-659
gan	-660
ty	-661
ues	-662
ug	-663
▁very	-664
▁start	-665
ner	-666
▁loc	-667
air	-668
▁Ar	-669
▁inst	-670
ash	-671
its	-672
nN	-673
ren	-674
>\	-675
fore	-676
az	-677
ek	-678
itt	-679
ax	-680
▁then	-681
▁own	-682
pr	-683
▁De	-684
ative	-685
▁should	-686
The	-687
▁even	-688
nE	-689
▁dec	-690
▁fam	-691
▁show	-692
nL	-693
ars	-694
hes	-695
ix	-696
▁high	-697
ex	-698
▁pol	-699
▁world	-700
ps	-701
ble	-702
ient	-703
gram	-704
▁sm	-705
ied	-706
▁good	-707
▁right	-708
▁gu	-709
ank	-710
▁great	-711
▁pres	-712
formation	-713
nIn	-714
▁Sh	-715
▁call	-716
irect	-717
▁ins	-718
atch	-719
▁develop	-720
▁mon	-721
▁▁▁▁▁▁▁▁▁▁▁▁	-722
▁eff	-723
▁such	-724
ins	-725
other	-726
iel	-727
▁find	-728
ale	-729
ason	-730
uc	-731
▁Al	-732
▁art	-733
▁again	-734
ah	-735
chn	-736
▁mod	-737
ven	-738
▁long	-739
▁end	-740
▁requ	-741
▁count	-742
▁mem	-743
pen	-744
view	-745
▁don	-746
ince	-747
nTh	-748
ollow	-749
▁And	-750
▁down	-751
▁best	-752
▁Le	-753
▁cre	-754
▁trans	-755
let	-756
▁ret	-757
▁made	-758
▁sur	-759
▁being	-760
ption	-761
▁av	-762
▁lead	-763
▁because	-764
man	-765
▁differe	-766
mber	-767
▁min	-768
▁support	-769
▁much	-770
▁med	-771
▁business	-772
▁ser	-773
▁ra	-774
▁did	-775
▁take	-776
ouse	-777
▁last	-778
▁him	-779
=\"	-780
ets	-781
ives	-782
▁mark	-783
▁num	-784
▁fil	-785
▁bel	-786
line	-787
unity	-788
▁team	-789
ten	-790
meric	-791
rest	-792
ines	-793
▁home	-794
▁cur	-795
▁day	-796
▁before	-797
▁car	-798
▁does	-799
▁read	-800
\\	-801
▁vis	-802
▁here	-803
▁An	-804
ms	-805
ret	-806
ution	-807
▁def	-808
way	-809
▁fun	-810
con	-811
▁design	-812
oad	-813
▁char	-814
▁system	-815
ton	-816
▁class	-817
arn	-818
▁{\	-819
▁those	-820
read	-821
ages	-822
ctions	-823
▁ed	-824
▁bo	-825
▁la	-826
▁che	-827
▁used	-828
nce	-829
▁Cl	-830
ize	-831
rent	-832
ode	-833
▁aut	-834
▁person	-835
der	-836
ital	-837
▁As	-838
led	-839
▁while	-840
▁life	-841
▁val	-842
ames	-843
ave	-844
▁ext	-845
oh	-846
▁inter	-847
▁disc	-848
iet	-849
▁sub	-850
▁sim	-851
▁information	-852
▁For	-853
ology	-854
▁del	-855
ween	-856
▁som	-857
ather	-858
vern	-859
▁think	-860
alk	-861
ern	-862
▁gr	-863
▁inte	-864
▁Tr	-865
ually	-866
roup	-867
iversity	-868
akes	-869
▁found	-870
▁program	-871
imes	-872
▁care	-873
▁adv	-874
▁child	-875
▁provid	-876
▁Americ	-877
▁det	-878
els	-879
ute	-880
ists	-881
▁follow	-882
ever	-883
▁ref	-884
▁i	-885
▁run	-886
au	-887
▁conf	-888
▁Ad	-889
▁around	-890
▁each	-891
▁exp	-892
▁state	-893
ality	-894
▁Sc	-895
nG	-896
▁sign	-897
▁hand	-898
▁between	-899
orn	-900
lease	-901
ield	-902
arm	-903
▁str	-904
ier	-905
ces	-906
uss	-907
▁If	-908
▁both	-909
att	-910
▁form	-911
ustom	-912
oot	-913
▁▁▁▁▁▁▁▁▁▁▁▁▁▁▁▁	-914
▁different	-915
▁rep	-916
▁post	-917
ple	-918
▁gl	-919
ger	-920
rand	-921
▁cour	-922
▁cent	-923
bers	-924
aj	-925
▁three	-926
▁data	-927
ross	-928
▁during	-929
▁still	-930
▁Ind	-931
ants	-932
ann	-933
▁same	-934
illion	-935
gy	-936
▁product	-937
▁prof	-938
▁Bl	-939
▁place	-940
▁But	-941
▁school	-942
eb	-943
▁sol	-944
▁import	-945
▁report	-946
ral	-947
▁ty	-948
▁techn	-949
▁using	-950
▁company	-951
ik	-952
ired	-953
▁Pl	-954
▁including	-955
▁list	-956
rid	-957
ized	-958
▁health	-959
▁book	-960
ved	-961
ished	-962
ving	-963
▁lar	-964
▁Wh	-965
▁project	-966
ional	-967
▁point	-968
ness	-969
usic	-970
▁process	-971
▁var	-972
vent	-973
▁contin	-974
▁really	-975
▁*	-976
ining	-977
▁gener	-978
▁open	-979
▁Se	-980
▁build	-981
ature	-982
▁ob	-983
▁sk	-984
▁month	-985
,\	-986
▁week	-987
▁inf	-988
▁iss	-989
</	-990
▁|	-991
▁top	-992
▁cr	-993
riend	-994
▁Is	-995
ced	-996
ined	-997
▁el	-998
ailable	-999
ina	-1000
▁cle	-1001
▁Ph	-1002
▁going	-1003
ural	-1004
ways	-1005
▁result	-1006
sc	-1007
que	-1008
ering	-1009
▁game	-1010
ER	-1011
▁Ex	-1012
St	-1013
ision	-1014
▁appro	-1015
▁organ	-1016
▁though	-1017
▁public	-1018
▁Con	-1019
reen	-1020
▁Sp	-1021
▁ear	-1022
be	-1023
▁dep	-1024
ows	-1025
▁eas	-1026
▁pass	-1027
▁soc	-1028
▁family	-1029
nThis	-1030
▁main	-1031
▁Col	-1032
iving	-1033
▁partic	-1034
▁ann	-1035
ator	-1036
ody	-1037
▁rece	-1038
▁sl	-1039
ccess	-1040
ism	-1041
▁cor	-1042
ploy	-1043
▁Q	-1044
▁direct	-1045
ared	-1046
▁dist	-1047
ery	-1048
ww	-1049
▁lot	-1050
▁She	-1051
▁resp	-1052
▁Be	-1053
▁say	-1054
▁second	-1055
app	-1056
▁pur	-1057
nJ	-1058
to	-1059
self	-1060
▁few	-1061
▁perform	-1062
▁happ	-1063
gg	-1064
▁since	-1065
▁custom	-1066
▁real	-1067
▁number	-1068
▁available	-1069
raph	-1070
▁est	-1071
ruct	-1072
▁How	-1073
▁They	-1074
aut	-1075
atic	-1076
▁Te	-1077
inal	-1078
eng	-1079
▁pat	-1080
▁[	-1081
▁mov	-1082
▁poss	-1083
▁market	-1084
son	-1085
▁University	-1086
▁free	-1087
▁invest	-1088
\"\	-1089
▁writ	-1090
ration	-1091
omen	-1092
ittle	-1093
▁rest	-1094
://	-1095
▁too	-1096
ron	-1097
▁plan	-1098
less	-1099
▁current	-1100
ior	-1101
outh	-1102
stand	-1103
▁tri	-1104
▁next	-1105
co	-1106
pro	-1107
▁stand	-1108
cent	-1109
▁All	-1110
▁try	-1111
ission	-1112
cept	-1113
▁rese	-1114
▁/	-1115
ves	-1116
orth	-1117
rist	-1118
▁expl	-1119
▁ide	-1120
ething	-1121
▁Comm	-1122
▁keep	-1123
▁love	-1124
err	-1125
ounc	-1126
sh	-1127
uro	-1128
▁interest	-1129
▁oper	-1130
▁experience	-1131
▁big	-1132
▁US	-1133
▁Cent	-1134
▁service	-1135
ling	-1136
thing	-1137
▁small	-1138
lection	-1139
min	-1140
▁fact	-1141
▁Res	-1142
by	-1143
vernment	-1144
▁come	-1145
▁Mar	-1146
).\	-1147
▁spec	-1148
▁feel	-1149
ott	-1150
ency	-1151
▁win	-1152
▁test	-1153
ense	-1154
ump	-1155
▁against	-1156
ley	-1157
▁head	-1158
▁another	-1159
▁put	-1160
▁di	-1161
de	-1162
IN	-1163
▁const	-1164
▁law	-1165
▁hist	-1166
ox	-1167
▁incre	-1168
gin	-1169
ential	-1170
ym	-1171
▁always	-1172
▁fr	-1173
rol	-1174
▁water	-1175
hor	-1176
ead	-1177
ware	-1178
ote	-1179
▁leg	-1180
▁pop	-1181
▁must	-1182
ird	-1183
enn	-1184
▁better	-1185
▁z	-1186
ately	-1187
▁without	-1188
▁something	-1189
▁access	-1190
ged	-1191
▁There	-1192
the	-1193
▁quest	-1194
ains	-1195
()	-1196
▁grow	-1197
▁name	-1198
▁things	-1199
▁working	-1200
ases	-1201
ream	-1202
▁important	-1203
▁proble	-1204
ney	-1205
\",	-1206
omm	-1207
ium	-1208
▁.	-1209
▁eng	-1210
▁sit	-1211
▁intern	-1212
lement	-1213
ording	-1214
▁Co	-1215
ury	-1216
oor	-1217
iron	-1218
par	-1219
▁pos	-1220
▁power	-1221
of	-1222
In	-1223
ats	-1224
▁Go	-1225
▁Jan	-1226
▁fac	-1227
▁br	-1228
▁says	-1229
ards	-1230
▁level	-1231
▁effect	-1232
ertain	-1233
▁pay	-1234
une	-1235
▁full	-1236
▁services	-1237
▁able	-1238
▁bro	-1239
▁students	-1240
med	-1241
▁dem	-1242
▁Man	-1243
▁local	-1244
▁four	-1245
gr	-1246
▁provide	-1247
▁Or	-1248
▁little	-1249
put	-1250
▁friend	-1251
ised	-1252
me	-1253
nY	-1254
por	-1255
ours	-1256
work	-1257
ently	-1258
oci	-1259
ohn	-1260
▁To	-1261
▁cou	-1262
▁special	-1263
ients	-1264
ee	-1265
▁cho	-1266
**	-1267
ON	-1268
ries	-1269
▁community	-1270
ivid	-1271
▁turn	-1272
▁old	-1273
▁indust	-1274
----	-1275
▁cost	-1276
▁Eng	-1277
▁view	-1278
▁proper	-1279
▁area	-1280
▁May	-1281
ush	-1282
▁return	-1283
▁equ	-1284
▁ca	-1285
▁hard	-1286
▁music	-1287
▁change	-1288
▁prom	-1289
ories	-1290
▁cap	-1291
arent	-1292
ubl	-1293
here	-1294
▁might	-1295
▁sing	-1296
vious	-1297
▁children	-1298
ights	-1299
...	-1300
▁Car	-1301
agement	-1302
icle	-1303
▁chang	-1304
nWe	-1305
▁On	-1306
▁event	-1307
orld	-1308
▁within	-1309
ify	-1310
▁Fr	-1311
▁never	-1312
▁par	-1313
▁success	-1314
▁es	-1315
▁case	-1316
ured	-1317
▁country	-1318
ource	-1319
▁days	-1320
ample	-1321
▁met	-1322
ider	-1323
oney	-1324
▁got	-1325
▁sure	-1326
▁meet	-1327
pos	-1328
▁bre	-1329
▁exc	-1330
.,	-1331
iety	-1332
ically	-1333
▁season	-1334
ified	-1335
ization	-1336
ai	-1337
▁group	-1338
▁profess	-1339
▁Can	-1340
▁visit	-1341
▁activ	-1342
▁offic	-1343
▁today	-1344
ober	-1345
▁million	-1346
ope	-1347
uman	-1348
lex	-1349
ered	-1350
▁aff	-1351
▁So	-1352
til	-1353
tem	-1354
▁less	-1355
urs	-1356
aster	-1357
ems	-1358
uck	-1359
oid	-1360
▁give	-1361
nU	-1362
aff	-1363
▁prote	-1364
▁addition	-1365
itions	-1366
ocus	-1367
▁online	-1368
ajor	-1369
AR	-1370
ES	-1371
▁order	-1372
▁webs	-1373
▁record	-1374
ieve	-1375
ray	-1376
ising	-1377
▁employ	-1378
ideo	-1379
▁making	-1380
▁Fl	-1381
▁applic	-1382
iver	-1383
viron	-1384
af	-1385
uly	-1386
acy	-1387
nIt	-1388
▁Am	-1389
▁present	-1390
...\	-1391
▁expect	-1392
▁pract	-1393
▁air	-1394
▁ask	-1395
▁research	-1396
uture	-1397
▁With	-1398
▁beh	-1399
side	-1400
▁phot	-1401
▁job	-1402
▁American	-1403
▁allow	-1404
ability	-1405
ister	-1406
joy	-1407
urity	-1408
ique	-1409
ived	-1410
over	-1411
AT	-1412
▁impro	-1413
ask	-1414
conom	-1415
▁Su	-1416
▁past	-1417
yn	-1418
ales	-1419
▁saf	-1420
iven	-1421
▁United	-1422
▁feat	-1423
val	-1424
br	-1425
▁along	-1426
▁▁▁▁▁▁	-1427
▁near	-1428
▁At	-1429
▁conc	-1430
{\	-1431
▁ben	-1432
ateg	-1433
▁creat	-1434
yle	-1435
▁fund	-1436
▁Med	-1437
▁film	-1438
▁supp	-1439
ane	-1440
▁:	-1441
atter	-1442
▁social	-1443
osp	-1444
ending	-1445
ocu	-1446
▁function	-1447
▁story	-1448
▁members	-1449
▁across	-1450
▁mar	-1451
ienc	-1452
ention	-1453
wards	-1454
ike	-1455
▁opt	-1456
▁understand	-1457
ung	-1458
▁create	-1459
ball	-1460
aim	-1461
gether	-1462
▁together	-1463
ills	-1464
▁government	-1465
▁John	-1466
go	-1467
▁site	-1468
▁mult	-1469
▁line	-1470
▁Euro	-1471
ourn	-1472
▁term	-1473
OR	-1474
▁until	-1475
▁Pr	-1476
ination	-1477
pecial	-1478
▁App	-1479
ready	-1480
▁camp	-1481
▁Christ	-1482
▁city	-1483
▁dra	-1484
▁light	-1485
▁land	-1486
▁value	-1487
▁et	-1488
uff	-1489
ots	-1490
che	-1491
ograph	-1492
▁looking	-1493
▁ve	-1494
▁food	-1495
We	-1496
tain	-1497
▁educ	-1498
▁vers	-1499
ele	-1500
▁move	-1501
ipp	-1502
artment	-1503
ably	-1504
vironment	-1505
for	-1506
idd	-1507
rop	-1508
▁room	-1509
▁away	-1510
▁opport	-1511
ethod	-1512
▁become	-1513
load	-1514
▁news	-1515
▁development	-1516
▁elect	-1517
AN	-1518
▁left	-1519
nIf	-1520
uary	-1521
▁include	-1522
eter	-1523
▁based	-1524
▁let	-1525
▁focus	-1526
▁State	-1527
▁dev	-1528
▁No	-1529
▁sever	-1530
utes	-1531
ended	-1532
▁X	-1533
▁School	-1534
ively	-1535
▁That	-1536
rivate	-1537
▁City	-1538
▁trad	-1539
ored	-1540
▁Min	-1541
▁cond	-1542
org	-1543
rap	-1544
▁offer	-1545
nect	-1546
▁major	-1547
▁World	-1548
rict	-1549
▁times	-1550
▁why	-1551
aces	-1552
▁women	-1553
ID	-1554
▁Ass	-1555
▁Pol	-1556
icy	-1557
inc	-1558
▁called	-1559
nK	-1560
▁orig	-1561
▁Rep	-1562
obal	-1563
▁learn	-1564
▁enjoy	-1565
▁York	-1566
▁non	-1567
▁short	-1568
▁dri	-1569
iting	-1570
▁Inst	-1571
▁sw	-1572
▁National	-1573
▁often	-1574
▁net	-1575
ails	-1576
alf	-1577
▁course	-1578
ances	-1579
ividual	-1580
▁possible	-1581
▁already	-1582
lish	-1583
▁mil	-1584
ene	-1585
▁website	-1586
▁charact	-1587
▁several	-1588
erence	-1589
(\"	-1590
ids	-1591
▁far	-1592
▁rele	-1593
itor	-1594
return	-1595
▁future	-1596
▁large	-1597
▁young	-1598
resent	-1599
▁fore	-1600
',	-1601
▁needs	-1602
itive	-1603
ians	-1604
▁following	-1605
ift	-1606
▁treat	-1607
▁commun	-1608
▁having	-1609
rem	-1610
room	-1611
roll	-1612
▁word	-1613
▁Ste	-1614
bo	-1615
ns	-1616
▁products	-1617
ape	-1618
▁house	-1619
▁quality	-1620
ris	-1621
▁series	-1622
ials	-1623
▁pot	-1624
▁What	-1625
play	-1626
AS	-1627
anies	-1628
ners	-1629
duct	-1630
aring	-1631
▁Intern	-1632
▁lo	-1633
▁pa	-1634
▁key	-1635
back	-1636
fect	-1637
▁live	-1638
▁industry	-1639
ones	-1640
▁check	-1641
▁account	-1642
lege	-1643
▁won	-1644
▁Gu	-1645
utions	-1646
▁Count	-1647
▁Europe	-1648
▁money	-1649
▁jo	-1650
ole	-1651
book	-1652
osed	-1653
uf	-1654
my	-1655
▁type	-1656
▁lik	-1657
▁Ed	-1658
cri	-1659
augh	-1660
▁individual	-1661
ze	-1662
pril	-1663
ief	-1664
▁makes	-1665
__	-1666
ources	-1667
▁compet	-1668
ler	-1669
ey	-1670
▁occ	-1671
▁early	-1672
▁En	-1673
▁deal	-1674
▁ever	-1675
ster	-1676
▁Pres	-1677
▁invol	-1678
▁review	-1679
ges	-1680
ony	-1681
▁chall	-1682
urther	-1683
▁tem	-1684
nV	-1685
ched	-1686
nWhat	-1687
▁Im	-1688
▁Aust	-1689
▁benef	-1690
▁lim	-1691
▁polit	-1692
▁comes	-1693
eral	-1694
abor	-1695
isc	-1696
▁wr	-1697
▁history	-1698
▁others	-1699
ilt	-1700
▁side	-1701
▁night	-1702
▁men	-1703
▁buy	-1704
▁field	-1705
▁Off	-1706
▁Oct	-1707
▁space	-1708
▁hold	-1709
EN	-1710
▁When	-1711
▁South	-1712
▁done	-1713
ada	-1714
▁News	-1715
ttp	-1716
▁page	-1717
▁personal	-1718
▁thing	-1719
verage	-1720
▁video	-1721
reet	-1722
▁cult	-1723
▁kind	-1724
▁control	-1725
▁known	-1726
▁self	-1727
▁example	-1728
irl	-1729
▁means	-1730
▁beaut	-1731
▁Bro	-1732
elling	-1733
▁Af	-1734
▁bas	-1735
vert	-1736
ides	-1737
unch	-1738
ille	-1739
anks	-1740
▁bring	-1741
nHow	-1742
dd	-1743
Th	-1744
hers	-1745
▁My	-1746
ports	-1747
▁technology	-1748
IS	-1749
▁<	-1750
public	-1751
==	-1752
▁January	-1753
▁require	-1754
fort	-1755
lete	-1756
▁pain	-1757
ctor	-1758
▁March	-1759
▁specific	-1760
▁▁▁▁▁▁▁	-1761
bb	-1762
rew	-1763
▁five	-1764
▁media	-1765
▁econom	-1766
▁sum	-1767
imate	-1768
▁Cal	-1769
nAs	-1770
▁mater	-1771
▁vol	-1772
▁companies	-1773
▁ident	-1774
▁later	-1775
▁Ne	-1776
▁North	-1777
▁port	-1778
▁Serv	-1779
isk	-1780
▁enc	-1781
('	-1782
▁fav	-1783
▁study	-1784
gest	-1785
▁anal	-1786
▁months	-1787
ancial	-1788
▁Che	-1789
▁enough	-1790
▁Me	-1791
ches	-1792
ilities	-1793
▁getting	-1794
most	-1795
▁started	-1796
▁author	-1797
ued	-1798
▁strong	-1799
▁Mc	-1800
▁share	-1801
▁tre	-1802
▁ens	-1803
▁easy	-1804
▁bit	-1805
▁came	-1806
▁clear	-1807
▁problem	-1808
▁complet	-1809
▁doesn	-1810
ttps	-1811
▁Sep	-1812
ulation	-1813
▁particular	-1814
▁doing	-1815
▁didn	-1816
set	-1817
▁tax	-1818
▁works	-1819
iam	-1820
ager	-1821
▁Aug	-1822
▁redu	-1823
▁mean	-1824
iod	-1825
ging	-1826
▁States	-1827
▁hig	-1828
▁Park	-1829
▁April	-1830
▁building	-1831
aken	-1832
▁typ	-1833
aps	-1834
cle	-1835
▁contact	-1836
▁ener	-1837
AL	-1838
▁low	-1839
year	-1840
▁final	-1841
▁comb	-1842
▁among	-1843
▁once	-1844
oman	-1845
▁tot	-1846
▁Dep	-1847
▁file	-1848
ators	-1849
▁certain	-1850
not	-1851
▁body	-1852
▁took	-1853
▁sound	-1854
▁dr	-1855
ither	-1856
▁Gl	-1857
ocument	-1858
▁talk	-1859
sw	-1860
▁war	-1861
▁step	-1862
▁given	-1863
ogn	-1864
irm	-1865
▁issues	-1866
▁human	-1867
▁least	-1868
▁percent	-1869
▁super	-1870
▁Cont	-1871
yl	-1872
▁Feb	-1873
opp	-1874
▁Sec	-1875
▁address	-1876
urch	-1877
▁environment	-1878
▁appear	-1879
▁wind	-1880
nWh	-1881
tember	-1882
▁mom	-1883
time	-1884
▁hours	-1885
▁range	-1886
cer	-1887
idence	-1888
ibr	-1889
▁Ab	-1890
▁aud	-1891
sp	-1892
ental	-1893
nYou	-1894
▁content	-1895
▁code	-1896
▁quick	-1897
IT	-1898
▁single	-1899
▁due	-1900
▁games	-1901
tr	-1902
▁method	-1903
▁discuss	-1904
▁init	-1905
ovember	-1906
fer	-1907
▁June	-1908
▁Do	-1909
illed	-1910
atur	-1911
▁deb	-1912
now	-1913
rodu	-1914
▁perfect	-1915
ival	-1916
ests	-1917
▁upd	-1918
▁below	-1919
▁ele	-1920
▁Em	-1921
ands	-1922
▁seen	-1923
nFor	-1924
ault	-1925
head	-1926
▁One	-1927
▁begin	-1928
ino	-1929
angu	-1930
▁Har	-1931
▁publ	-1932
▁Will	-1933
();\	-1934
cember	-1935
crib	-1936
▁told	-1937
na	-1938
ana	-1939
▁press	-1940
ained	-1941
▁Bar	-1942
iol	-1943
▁brand	-1944
gu	-1945
▁song	-1946
▁role	-1947
arget	-1948
reg	-1949
▁These	-1950
iful	-1951
rain	-1952
ilar	-1953
▁fre	-1954
ison	-1955
▁Tw	-1956
itle	-1957
▁pack	-1958
▁claim	-1959
aur	-1960
place	-1961
ED	-1962
▁Ge	-1963
▁ant	-1964
▁Des	-1965
elt	-1966
▁relations	-1967
▁Comp	-1968
▁host	-1969
▁happen	-1970
oon	-1971
▁true	-1972
▁yet	-1973
bl	-1974
IC	-1975
▁pri	-1976
nBy	-1977
igital	-1978
▁July	-1979
▁However	-1980
▁soft	-1981
ny	-1982
ibility	-1983
ham	-1984
▁cut	-1985
▁foot	-1986
->	-1987
mit	-1988
ops	-1989
▁Bo	-1990
▁install	-1991
▁friends	-1992
▁respons	-1993
▁Par	-1994
▁energy	-1995
▁actually	-1996
ades	-1997
▁crit	-1998
▁effort	-1999
▁Part	-2000
▁President	-2001
▁UK	-2002
▁went	-2003
adem	-2004
opy	-2005
▁mess	-2006
asing	-2007
▁ago	-2008
It	-2009
error	-2010
▁mot	-2011
▁Stud	-2012
▁offers	-2013
▁travel	-2014
nov	-2015
ips	-2016
▁track	-2017
atural	-2018
ae	-2019
▁Gr	-2020
▁particip	-2021
▁hot	-2022
▁tool	-2023
▁mind	-2024
raft	-2025
▁further	-2026
ournal	-2027
ule	-2028
era	-2029
earch	-2030
▁impact	-2031
▁features	-2032
▁West	-2033
nes	-2034
▁Our	-2035
▁Center	-2036
▁Sm	-2037
▁Br	-2038
roid	-2039
atest	-2040
▁added	-2041
ception	-2042
new	-2043
add	-2044
▁und	-2045
▁September	-2046
▁third	-2047
itted	-2048
▁x	-2049
gress	-2050
▁miss	-2051
▁staff	-2052
▁County	-2053
▁parent	-2054
alt	-2055
▁Art	-2056
▁Ag	-2057
▁national	-2058
ux	-2059
fl	-2060
▁training	-2061
▁text	-2062
umb	-2063
▁pie	-2064
▁minutes	-2065
▁El	-2066
▁results	-2067
nSt	-2068
▁performance	-2069
▁November	-2070
▁period	-2071
▁Qu	-2072
ogle	-2073
▁whether	-2074
▁improve	-2075
pecially	-2076
]\	-2077
ume	-2078
aged	-2079
import	-2080
though	-2081
ma	-2082
▁break	-2083
▁Health	-2084
▁events	-2085
▁December	-2086
▁represent	-2087
▁Austral	-2088
ij	-2089
▁question	-2090
▁everything	-2091
▁coll	-2092
▁areas	-2093
ried	-2094
▁wa	-2095
::	-2096
▁according	-2097
▁bar	-2098
ype	-2099
▁reason	-2100
▁October	-2101
▁Cor	-2102
ember	-2103
ST	-2104
ends	-2105
▁Reg	-2106
▁price	-2107
ites	-2108
▁tell	-2109
▁potential	-2110
▁Not	-2111
key	-2112
▁above	-2113
▁Dr	-2114
▁age	-2115
bum	-2116
uation	-2117
▁issue	-2118
▁watch	-2119
irt	-2120
▁continue	-2121
▁half	-2122
▁heart	-2123
▁thought	-2124
▁management	-2125
▁War	-2126
▁Afric	-2127
▁table	-2128
▁select	-2129
aging	-2130
▁store	-2131
AC	-2132
ication	-2133
▁six	-2134
ruary	-2135
ecut	-2136
ruction	-2137
▁stay	-2138
▁Act	-2139
▁ess	-2140
iter	-2141
▁Pe	-2142
▁signific	-2143
▁previous	-2144
ensive	-2145
▁ste	-2146
▁close	-2147
ondon	-2148
▁House	-2149
▁taking	-2150
▁connect	-2151
▁ach	-2152
onse	-2153
▁model	-2154
RE	-2155
▁Per	-2156
cast	-2157
▁Dav	-2158
▁purch	-2159
off	-2160
▁member	-2161
▁office	-2162
▁front	-2163
▁August	-2164
▁famil	-2165
▁version	-2166
ague	-2167
▁international	-2168
▁log	-2169
apt	-2170
sel	-2171
▁hom	-2172
▁,	-2173
coming	-2174
▁protect	-2175
ples	-2176
ided	-2177
▁clean	-2178
minist	-2179
▁phys	-2180
▁ey	-2181
aching	-2182
▁der	-2183
▁compl	-2184
▁created	-2185
▁action	-2186
▁After	-2187
Con	-2188
▁walk	-2189
used	-2190
olution	-2191
▁security	-2192
▁customers	-2193
www	-2194
ml	-2195
ety	-2196
icro	-2197
▁various	-2198
hing	-2199
'\	-2200
atform	-2201
▁former	-2202
▁property	-2203
icult	-2204
▁career	-2205
ires	-2206
▁object	-2207
▁mag	-2208
▁Mark	-2209
▁provides	-2210
▁recomm	-2211
▁cred	-2212
▁players	-2213
urance	-2214
ledge	-2215
itch	-2216
clus	-2217
▁fall	-2218
▁prob	-2219
▁common	-2220
▁leaders	-2221
tee	-2222
ises	-2223
▁trying	-2224
ground	-2225
amb	-2226
ouncil	-2227
hel	-2228
▁Brit	-2229
▁face	-2230
▁By	-2231
▁experienc	-2232
▁pick	-2233
▁sugg	-2234
wh	-2235
▁financial	-2236
▁search	-2237
obile	-2238
itter	-2239
▁exist	-2240
face	-2241
▁High	-2242
▁cele	-2243
▁dou	-2244
▁Sw	-2245
icated	-2246
▁education	-2247
ender	-2248
▁America	-2249
▁living	-2250
ification	-2251
ules	-2252
▁forward	-2253
▁Soc	-2254
ply	-2255
Ch	-2256
come	-2257
▁Her	-2258
ables	-2259
oo	-2260
▁idea	-2261
▁stat	-2262
ufact	-2263
iple	-2264
itional	-2265
▁clos	-2266
▁held	-2267
ament	-2268
▁unique	-2269
▁bed	-2270
▁else	-2271
▁meas	-2272
▁believe	-2273
▁coming	-2274
▁cal	-2275
▁amount	-2276
▁points	-2277
▁user	-2278
▁currently	-2279
▁whole	-2280
▁estab	-2281
var	-2282
▁professional	-2283
▁death	-2284
▁God	-2285
▁shows	-2286
▁please	-2287
▁popular	-2288
▁beautiful	-2289
ington	-2290
▁recent	-2291
▁--	-2292
▁CO	-2293
▁pict	-2294
▁character	-2295
▁taken	-2296
▁sent	-2297
▁consider	-2298
▁announc	-2299
▁His	-2300
▁complete	-2301
irc	-2302
▁someone	-2303
rug	-2304
selves	-2305
▁entire	-2306
▁includes	-2307
ica	-2308
ext	-2309
ees	-2310
nThere	-2311
ald	-2312
oud	-2313
▁global	-2314
name	-2315
oved	-2316
▁contrib	-2317
▁fire	-2318
▁assist	-2319
▁Rec	-2320
▁February	-2321
nimport	-2322
ructure	-2323
▁TV	-2324
▁engine	-2325
▁recogn	-2326
▁especially	-2327
aul	-2328
▁almost	-2329
▁Ser	-2330
▁Char	-2331
rec	-2332
ett	-2333
oe	-2334
oph	-2335
ser	-2336
▁ap	-2337
amed	-2338
▁tour	-2339
▁wond	-2340
nHe	-2341
oring	-2342
right	-2343
▁style	-2344
▁required	-2345
▁infl	-2346
▁op	-2347
epend	-2348
▁significant	-2349
▁relationship	-2350
inks	-2351
rs	-2352
ully	-2353
ev	-2354
resh	-2355
tered	-2356
▁simple	-2357
▁email	-2358
▁road	-2359
▁changes	-2360
▁received	-2361
Pro	-2362
▁Your	-2363
▁London	-2364
ession	-2365
icles	-2366
▁questions	-2367
uge	-2368
AM	-2369
▁Associ	-2370
▁total	-2371
EC	-2372
▁hon	-2373
hern	-2374
▁likely	-2375
uild	-2376
based	-2377
▁position	-2378
▁Tra	-2379
▁takes	-2380
Ex	-2381
aign	-2382
▁Don	-2383
arning	-2384
▁via	-2385
▁private	-2386
aced	-2387
▁article	-2388
▁difficult	-2389
▁everyone	-2390
adu	-2391
▁date	-2392
▁fail	-2393
nCh	-2394
▁latest	-2395
▁mor	-2396
eg	-2397
▁either	-2398
▁Just	-2399
▁needed	-2400
▁opportunity	-2401
▁inj	-2402
▁Trump	-2403
▁network	-2404
aker	-2405
ama	-2406
▁seem	-2407
▁systems	-2408
▁stre	-2409
▁original	-2410
aily	-2411
▁link	-2412
▁International	-2413
▁worked	-2414
▁recently	-2415
!!	-2416
▁Russ	-2417
▁comput	-2418
ocr	-2419
uk	-2420
eal	-2421
▁size	-2422
anguage	-2423
▁Direct	-2424
▁Net	-2425
iddle	-2426
yd	-2427
str	-2428
▁Day	-2429
hib	-2430
▁print	-2431
iate	-2432
▁application	-2433
▁behind	-2434
▁successful	-2435
▁Val	-2436
▁answ	-2437
▁San	-2438
nWhen	-2439
▁veh	-2440
▁encou	-2441
▁rights	-2442
nBut	-2443
ET	-2444
▁production	-2445
▁anim	-2446
▁Law	-2447
▁Mon	-2448
▁release	-2449
▁similar	-2450
▁designed	-2451
▁Fin	-2452
▁red	-2453
▁however	-2454
ospital	-2455
nAl	-2456
▁hit	-2457
▁cover	-2458
▁quite	-2459
▁Sch	-2460
nOn	-2461
▁India	-2462
▁black	-2463
▁ways	-2464
astic	-2465
▁wanted	-2466
▁running	-2467
▁web	-2468
▁Cour	-2469
▁soon	-2470
/\	-2471
▁attack	-2472
▁More	-2473
▁anything	-2474
▁lives	-2475
▁ground	-2476
▁La	-2477
urg	-2478
arter	-2479
▁countries	-2480
▁throughout	-2481
ams	-2482
nAn	-2483
cont	-2484
▁rad	-2485
▁associ	-2486
▁ensure	-2487
ara	-2488
▁town	-2489
▁contract	-2490
▁consum	-2491
action	-2492
▁concern	-2493
airs	-2494
▁favor	-2495
anced	-2496
▁agree	-2497
▁risk	-2498
ffic	-2499
▁viol	-2500
▁writing	-2501
▁Mich	-2502
▁target	-2503
atory	-2504
▁base	-2505
ishing	-2506
▁options	-2507
▁Department	-2508
!"}	-2509
▁Of	-2510
ude	-2511
▁insp	-2512
▁commit	-2513
▁policy	-2514
▁card	-2515
▁increase	-2516
▁document	-2517
▁dom	-2518
▁Dis	-2519
▁China	-2520
▁general	-2521
wood	-2522
vis	-2523
iction	-2524
eks	-2525
ava	-2526
ederal	-2527
▁court	-2528
▁po	-2529
▁necess	-2530
▁gen	-2531
riday	-2532
▁album	-2533
▁users	-2534
▁cell	-2535
▁hope	-2536
▁match	-2537
▁provided	-2538
▁student	-2539
▁outside	-2540
▁party	-2541
erc	-2542
overed	-2543
▁ep	-2544
▁natural	-2545
roups	-2546
▁prim	-2547
▁platform	-2548
▁isn	-2549
igation	-2550
▁medical	-2551
▁respect	-2552
uel	-2553
This	-2554
▁built	-2555
▁white	-2556
sy	-2557
olid	-2558
this	-2559
▁Aut	-2560
▁president	-2561
EL	-2562
▁Ac	-2563
▁learning	-2564
iforn	-2565
▁growth	-2566
▁projects	-2567
ha	-2568
▁released	-2569
tty	-2570
hold	-2571
ari	-2572
eds	-2573
orks	-2574
▁ut	-2575
ese	-2576
▁Germ	-2577
▁bad	-2578
▁challeng	-2579
▁park	-2580
lier	-2581
▁cook	-2582
itute	-2583
▁color	-2584
▁autom	-2585
▁abs	-2586
▁Ang	-2587
ags	-2588
▁announced	-2589
▁imm	-2590
▁determ	-2591
aving	-2592
edd	-2593
▁rather	-2594
▁board	-2595
▁leading	-2596
▁introdu	-2597
▁Pat	-2598
▁dest	-2599
pre	-2600
▁details	-2601
▁located	-2602
▁decision	-2603
▁simply	-2604
▁exam	-2605
▁deg	-2606
▁King	-2607
▁Air	-2608
▁opp	-2609
\".	-2610
ming	-2611
▁became	-2612
▁treatment	-2613
▁played	-2614
▁subject	-2615
ridge	-2616
ocal	-2617
▁manufact	-2618
▁neg	-2619
AP	-2620
itary	-2621
▁Group	-2622
▁collect	-2623
--------	-2624
light	-2625
▁blog	-2626
▁problems	-2627
apan	-2628
▁tou	-2629
useum	-2630
▁receive	-2631
oice	-2632
rect	-2633
bor	-2634
▁pers	-2635
ael	-2636
▁tal	-2637
▁playing	-2638
▁arch	-2639
▁image	-2640
UR	-2641
▁fig	-2642
▁goal	-2643
▁Inc	-2644
▁Black	-2645
opt	-2646
....	-2647
▁From	-2648
ran	-2649
▁College	-2650
▁campaign	-2651
ifornia	-2652
▁accept	-2653
▁dam	-2654
nAnd	-2655
unt	-2656
▁police	-2657
aining	-2658
▁probably	-2659
▁seems	-2660
▁box	-2661
▁regular	-2662
Cl	-2663
▁Now	-2664
ivity	-2665
▁defin	-2666
▁plans	-2667
▁asked	-2668
▁suggest	-2669
oke	-2670
▁screen	-2671
▁matter	-2672
▁option	-2673
▁\\	-2674
▁girl	-2675
ension	-2676
▁late	-2677
▁sales	-2678
ached	-2679
OT	-2680
▁reported	-2681
▁stop	-2682
▁practice	-2683
istic	-2684
▁inside	-2685
nh	-2686
▁TH	-2687
▁click	-2688
ky	-2689
▁mach	-2690
▁patients	-2691
▁political	-2692
▁cases	-2693
▁regard	-2694
▁activities	-2695
nter	-2696
ils	-2697
▁request	-2698
▁download	-2699
urb	-2700
mon	-2701
▁weeks	-2702
Name	-2703
su	-2704
OS	-2705
Id	-2706
▁knowledge	-2707
izing	-2708
idents	-2709
▁award	-2710
ysis	-2711
▁words	-2712
▁began	-2713
▁partners	-2714
▁English	-2715
▁Friday	-2716
▁emer	-2717
▁Mr	-2718
ford	-2719
▁approach	-2720
▁summer	-2721
▁extra	-2722
▁round	-2723
▁published	-2724
▁fit	-2725
pper	-2726
▁>	-2727
pped	-2728
ibrary	-2729
▁wall	-2730
▁vict	-2731
▁included	-2732
▁Up	-2733
▁Sund	-2734
▁describ	-2735
▁Acc	-2736
▁loss	-2737
hood	-2738
mark	-2739
▁ideas	-2740
inary	-2741
▁legal	-2742
mercial	-2743
irth	-2744
▁vac	-2745
▁led	-2746
atives	-2747
omp	-2748
▁phone	-2749
▁expected	-2750
iles	-2751
nces	-2752
arc	-2753
attle	-2754
▁kids	-2755
String	-2756
▁programs	-2757
▁Sen	-2758
▁fast	-2759
etimes	-2760
▁draw	-2761
nTo	-2762
▁higher	-2763
▁involved	-2764
▁digital	-2765
BC	-2766
EO	-2767
▁path	-2768
▁prior	-2769
orge	-2770
uses	-2771
▁ill	-2772
▁sett	-2773
▁norm	-2774
▁meeting	-2775
IL	-2776
class	-2777
umn	-2778
\">	-2779
azing	-2780
▁additional	-2781
▁paper	-2782
▁worth	-2783
lev	-2784
▁ver	-2785
rel	-2786
▁bi	-2787
ological	-2788
US	-2789
aturday	-2790
unities	-2791
oom	-2792
▁modern	-2793
▁pan	-2794
▁club	-2795
fc	-2796
tempt	-2797
▁mass	-2798
ror	-2799
itc	-2800
▁sat	-2801
▁express	-2802
▁leave	-2803
▁hop	-2804
▁implement	-2805
▁teac	-2806
acebook	-2807
istry	-2808
ength	-2809
mas	-2810
▁affect	-2811
▁stri	-2812
▁moment	-2813
OM	-2814
▁source	-2815
ayer	-2816
▁instead	-2817
▁movie	-2818
▁clients	-2819
▁Gener	-2820
oto	-2821
vey	-2822
net	-2823
div	-2824
▁Dem	-2825
▁band	-2826
lin	-2827
▁celebr	-2828
▁ball	-2829
raw	-2830
▁nothing	-2831
▁couple	-2832
aint	-2833
▁skills	-2834
ville	-2835
▁Phil	-2836
ection	-2837
▁California	-2838
akers	-2839
▁While	-2840
col	-2841
yp	-2842
duc	-2843
▁driv	-2844
rown	-2845
▁Business	-2846
▁multiple	-2847
▁den	-2848
▁cannot	-2849
ashington	-2850
▁prep	-2851
▁collection	-2852
▁lost	-2853
▁fight	-2854
▁choose	-2855
▁longer	-2856
ING	-2857
ography	-2858
▁rate	-2859
field	-2860
▁groups	-2861
▁cand	-2862
▁propos	-2863
▁East	-2864
▁official	-2865
▁average	-2866
▁son	-2867
iation	-2868
ript	-2869
nSo	-2870
cription	-2871
ico	-2872
▁software	-2873
ado	-2874
▁pretty	-2875
▁looks	-2876
▁deep	-2877
▁itself	-2878
▁Street	-2879
ida	-2880
▁Cons	-2881
▁prevent	-2882
word	-2883
leg	-2884
uth	-2885
▁happy	-2886
asons	-2887
▁European	-2888
iring	-2889
▁books	-2890
▁histor	-2891
▁Council	-2892
▁safe	-2893
▁safety	-2894
equ	-2895
order	-2896
ht	-2897
▁Wind	-2898
pite	-2899
imum	-2900
Ar	-2901
iqu	-2902
fr	-2903
abel	-2904
▁director	-2905
▁wel	-2906
▁comfort	-2907
▁drug	-2908
▁display	-2909
▁related	-2910
▁standard	-2911
▁dise	-2912
odel	-2913
▁ready	-2914
acing	-2915
▁Court	-2916
ycl	-2917
▁etc	-2918
▁System	-2919
▁wide	-2920
▁reve	-2921
sec	-2922
aries	-2923
▁terms	-2924
▁encoura	-2925
▁mix	-2926
ications	-2927
ims	-2928
▁▁▁▁▁▁▁▁▁▁▁	-2929
▁Book	-2930
▁sens	-2931
▁drive	-2932
enge	-2933
▁Japan	-2934
▁Google	-2935
▁region	-2936
iant	-2937
▁sense	-2938
oes	-2939
itect	-2940
▁Some	-2941
▁vot	-2942
▁sche	-2943
▁wonder	-2944
▁Prof	-2945
down	-2946
▁sym	-2947
▁pric	-2948
▁reading	-2949
▁obs	-2950
ivil	-2951
▁customer	-2952
▁anyone	-2953
▁mat	-2954
la	-2955
▁ple	-2956
erous	-2957
▁innov	-2958
▁sold	-2959
board	-2960
onday	-2961
test	-2962
▁First	-2963
▁plant	-2964
▁Add	-2965
▁Hol	-2966
▁attempt	-2967
▁yourself	-2968
oper	-2969
nWith	-2970
▁parents	-2971
▁Program	-2972
▁Are	-2973
▁Out	-2974
orage	-2975
cing	-2976
▁Pre	-2977
▁center	-2978
▁solution	-2979
▁conditions	-2980
unction	-2981
ellow	-2982
▁ability	-2983
▁exact	-2984
▁sus	-2985
▁separ	-2986
▁themselves	-2987
mission	-2988
ecutive	-2989
▁Saturday	-2990
▁allows	-2991
inter	-2992
ores	-2993
pose	-2994
▁providing	-2995
illing	-2996
▁influ	-2997
erve	-2998
▁Dist	-2999
▁apply	-3000
▁Techn	-3001
View	-3002
▁cam	-3003
▁David	-3004
log	-3005
▁Sunday	-3006
▁Trans	-3007
▁Red	-3008
AD	-3009
▁mus	-3010
▁written	-3011
▁feature	-3012
where	-3013
▁oil	-3014
▁Post	-3015
▁quickly	-3016
bre	-3017
▁circ	-3018
▁pred	-3019
ipment	-3020
iber	-3021
arden	-3022
▁usually	-3023
▁saw	-3024
▁Found	-3025
▁resources	-3026
▁Cr	-3027
mp	-3028
▁response	-3029
▁qual	-3030
▁schools	-3031
vest	-3032
▁mother	-3033
▁broad	-3034
▁statement	-3035
▁woman	-3036
zz	-3037
▁Sim	-3038
▁cause	-3039
▁Washington	-3040
asc	-3041
▁block	-3042
rab	-3043
avy	-3044
▁bud	-3045
▁variety	-3046
alse	-3047
▁effic	-3048
print	-3049
▁earn	-3050
▁billion	-3051
▁sil	-3052
▁player	-3053
▁die	-3054
▁Year	-3055
▁interview	-3056
ampions	-3057
▁Facebook	-3058
wide	-3059
ares	-3060
▁families	-3061
▁upon	-3062
itution	-3063
▁Ob	-3064
▁Research	-3065
▁dog	-3066
▁businesses	-3067
▁title	-3068
▁II	-3069
ceed	-3070
▁Indian	-3071
▁bank	-3072
anch	-3073
▁parts	-3074
▁immed	-3075
rag	-3076
▁ded	-3077
▁chance	-3078
▁insurance	-3079
▁language	-3080
▁Canada	-3081
▁du	-3082
▁maintain	-3083
rought	-3084
imately	-3085
▁levels	-3086
ustain	-3087
▁material	-3088
aches	-3089
▁bott	-3090
▁conduct	-3091
▁organization	-3092
▁bal	-3093
def	-3094
▁capt	-3095
using	-3096
▁rev	-3097
▁organiz	-3098
▁write	-3099
estival	-3100
▁Pal	-3101
▁choice	-3102
ago	-3103
▁excell	-3104
▁William	-3105
irit	-3106
▁prem	-3107
▁Hist	-3108
osing	-3109
▁conne	-3110
ION	-3111
dom	-3112
▁save	-3113
oul	-3114
▁comment	-3115
▁Here	-3116
comes	-3117
erved	-3118
▁complex	-3119
▁administ	-3120
▁developed	-3121
ka	-3122
▁div	-3123
▁star	-3124
aught	-3125
▁distrib	-3126
Cont	-3127
▁Australia	-3128
▁stage	-3129
ought	-3130
▁surpr	-3131
list	-3132
▁decided	-3133
▁stories	-3134
itation	-3135
rench	-3136
▁Port	-3137
▁mid	-3138
aves	-3139
▁opportunities	-3140
▁decl	-3141
band	-3142
List	-3143
▁Inter	-3144
▁er	-3145
▁Association	-3146
▁location	-3147
▁Mor	-3148
▁Us	-3149
▁squ	-3150
▁culture	-3151
▁fans	-3152
▁ten	-3153
▁employees	-3154
aper	-3155
▁serious	-3156
idered	-3157
ki	-3158
▁lic	-3159
▁stru	-3160
▁Mag	-3161
ednes	-3162
▁British	-3163
mb	-3164
verse	-3165
raz	-3166
▁sn	-3167
▁firm	-3168
▁expert	-3169
▁achieve	-3170
▁growing	-3171
rael	-3172
olf	-3173
▁hor	-3174
▁Develop	-3175
gen	-3176
▁floor	-3177
▁goes	-3178
▁sen	-3179
▁gives	-3180
▁Int	-3181
▁nation	-3182
▁Monday	-3183
▁marketing	-3184
unk	-3185
▁sle	-3186
▁attention	-3187
▁collabor	-3188
▁hous	-3189
▁recommend	-3190
▁progress	-3191
ursday	-3192
▁enter	-3193
▁Service	-3194
\">\	-3195
▁teams	-3196
▁James	-3197
▁easily	-3198
▁Read	-3199
▁Music	-3200
▁items	-3201
cript	-3202
▁Home	-3203
iding	-3204
aby	-3205
▁Best	-3206
uesday	-3207
rote	-3208
▁wood	-3209
Ph	-3210
itchen	-3211
▁costs	-3212
estern	-3213
);	-3214
ties	-3215
▁Get	-3216
▁string	-3217
▁credit	-3218
urt	-3219
▁Super	-3220
Val	-3221
▁lower	-3222
ening	-3223
▁Director	-3224
▁swe	-3225
▁types	-3226
▁answer	-3227
ednesday	-3228
▁bus	-3229
▁message	-3230
hest	-3231
yond	-3232
▁amazing	-3233
▁huge	-3234
ube	-3235
▁seek	-3236
▁morning	-3237
▁Sing	-3238
▁towards	-3239
▁sell	-3240
atal	-3241
iance	-3242
oday	-3243
****	-3244
▁White	-3245
▁https	-3246
\".\	-3247
▁creating	-3248
▁Institute	-3249
▁jud	-3250
▁Paul	-3251
▁mobile	-3252
▁commercial	-3253
▁fix	-3254
▁tried	-3255
▁threat	-3256
▁sex	-3257
just	-3258
▁solutions	-3259
▁fresh	-3260
▁Je	-3261
▁cool	-3262
nAt	-3263
body	-3264
▁door	-3265
▁named	-3266
▁directly	-3267
box	-3268
▁avoid	-3269
data	-3270
nAfter	-3271
iment	-3272
▁gets	-3273
▁highly	-3274
▁trust	-3275
pm	-3276
▁subs	-3277
▁aw	-3278
▁error	-3279
inated	-3280
▁reach	-3281
▁streng	-3282
amic	-3283
▁piece	-3284
▁giving	-3285
▁deliver	-3286
▁wrong	-3287
▁largest	-3288
▁dat	-3289
▁section	-3290
▁benefits	-3291
▁Green	-3292
▁computer	-3293
▁interesting	-3294
▁necessary	-3295
▁independ	-3296
▁ones	-3297
rial	-3298
▁Tex	-3299
▁initial	-3300
▁Ear	-3301
▁Hall	-3302
reed	-3303
▁=>	-3304
▁promot	-3305
sych	-3306
icate	-3307
pri	-3308
):	-3309
▁Review	-3310
ien	-3311
▁effective	-3312
▁Dec	-3313
▁Ben	-3314
▁Del	-3315
▁Educ	-3316
▁economic	-3317
ech	-3318
▁arriv	-3319
▁Fil	-3320
()\	-3321
▁touch	-3322
▁mention	-3323
ston	-3324
▁green	-3325
▁considered	-3326
▁hands	-3327
▁Public	-3328
▁acqu	-3329
ulations	-3330
▁positive	-3331
men	-3332
▁Rich	-3333
▁consult	-3334
ategy	-3335
itiz	-3336
▁IN	-3337
▁starting	-3338
▁race	-3339
▁states	-3340
ipe	-3341
▁cross	-3342
like	-3343
▁traditional	-3344
hips	-3345
▁favorite	-3346
lands	-3347
▁neigh	-3348
▁Design	-3349
▁planning	-3350
▁restaur	-3351
▁aware	-3352
▁Republic	-3353
▁sun	-3354
▁detail	-3355
eed	-3356
▁father	-3357
enty	-3358
▁Ital	-3359
▁Great	-3360
▁Ant	-3361
▁nature	-3362
rast	-3363
▁sal	-3364
▁send	-3365
▁daily	-3366
▁lif	-3367
uted	-3368
arr	-3369
haps	-3370
▁fully	-3371
▁tools	-3372
▁mount	-3373
\":	-3374
▁roll	-3375
▁Africa	-3376
▁tick	-3377
▁wid	-3378
▁nearly	-3379
▁essential	-3380
▁trade	-3381
▁sort	-3382
▁capital	-3383
▁dead	-3384
▁demand	-3385
▁Services	-3386
▁Ann	-3387
▁cert	-3388
▁gas	-3389
▁gave	-3390
isl	-3391
▁que	-3392
nOur	-3393
change	-3394
▁correct	-3395
▁▁▁▁▁▁▁▁▁▁	-3396
▁strateg	-3397
venue	-3398
▁Life	-3399
▁convers	-3400
itar	-3401
▁flow	-3402
▁served	-3403
omb	-3404
isions	-3405
▁Board	-3406
▁Office	-3407
ester	-3408
▁Conf	-3409
▁AP	-3410
▁wasn	-3411
▁values	-3412
▁feed	-3413
▁expand	-3414
▁suff	-3415
ref	-3416
▁Jack	-3417
▁situation	-3418
▁Dan	-3419
▁reports	-3420
▁investment	-3421
nEx	-3422
▁materials	-3423
▁brought	-3424
ancy	-3425
▁boy	-3426
▁Tuesday	-3427
▁Mac	-3428
▁hear	-3429
▁Bel	-3430
td	-3431
amily	-3432
fully	-3433
▁individuals	-3434
▁join	-3435
met	-3436
▁helps	-3437
OL	-3438
▁gold	-3439
ences	-3440
▁limited	-3441
icip	-3442
za	-3443
lished	-3444
▁equipment	-3445
gs	-3446
urrent	-3447
▁device	-3448
force	-3449
▁stra	-3450
▁load	-3451
▁spent	-3452
▁England	-3453
▁efforts	-3454
▁Sl	-3455
▁Vol	-3456
▁military	-3457
▁rock	-3458
▁Thursday	-3459
nown	-3460
ios	-3461
▁birth	-3462
nAll	-3463
▁sale	-3464
▁candid	-3465
▁belie	-3466
▁.\	-3467
▁skin	-3468
▁applications	-3469
ache	-3470
lied	-3471
part	-3472
▁dream	-3473
▁respond	-3474
bon	-3475
▁copy	-3476
▁van	-3477
▁images	-3478
▁lack	-3479
df	-3480
sequ	-3481
▁scient	-3482
▁uses	-3483
▁Ke	-3484
▁felt	-3485
▁fa	-3486
nf	-3487
mar	-3488
▁Gold	-3489
ros	-3490
▁Wednesday	-3491
▁himself	-3492
ona	-3493
▁Ber	-3494
▁places	-3495
iger	-3496
do	-3497
▁http	-3498
▁fair	-3499
cel	-3500
▁construction	-3501
Res	-3502
▁grand	-3503
▁Mart	-3504
ocks	-3505
▁Mem	-3506
UT	-3507
▁IS	-3508
▁Christmas	-3509
▁remember	-3510
▁categ	-3511
▁nice	-3512
▁concept	-3513
▁behav	-3514
odes	-3515
▁instru	-3516
▁serve	-3517
▁sports	-3518
▁hum	-3519
house	-3520
aran	-3521
▁goals	-3522
aled	-3523
▁fine	-3524
VID	-3525
date	-3526
▁Work	-3527
chan	-3528
ancing	-3529
ourney	-3530
▁Texas	-3531
▁purchase	-3532
mat	-3533
▁saying	-3534
ibly	-3535
aughter	-3536
▁annual	-3537
itz	-3538
▁id	-3539
porate	-3540
LE	-3541
▁moving	-3542
aste	-3543
IP	-3544
▁thous	-3545
▁Israel	-3546
rie	-3547
ota	-3548
▁client	-3549
▁college	-3550
Type	-3551
▁football	-3552
see	-3553
opping	-3554
▁inform	-3555
▁transport	-3556
▁ult	-3557
▁completely	-3558
bit	-3559
izes	-3560
▁Ev	-3561
den	-3562
ults	-3563
▁born	-3564
Sh	-3565
iences	-3566
▁seven	-3567
▁speed	-3568
▁fem	-3569
▁gradu	-3570
▁budget	-3571
▁earlier	-3572
▁impress	-3573
▁Arch	-3574
iling	-3575
▁Michael	-3576
▁Sur	-3577
▁max	-3578
▁dark	-3579
▁General	-3580
irus	-3581
▁surv	-3582
▁changed	-3583
▁quarter	-3584
▁profession	-3585
▁Angel	-3586
▁increasing	-3587
▁Club	-3588
▁condition	-3589
▁files	-3590
mitted	-3591
oyal	-3592
▁Bank	-3593
▁degree	-3594
ken	-3595
wise	-3596
nNew	-3597
▁ri	-3598
▁Rober	-3599
▁Open	-3600
▁Then	-3601
▁League	-3602
▁assess	-3603
▁appoint	-3604
▁demon	-3605
▁analysis	-3606
▁subst	-3607
itable	-3608
eat	-3609
▁Cong	-3610
yt	-3611
▁wrote	-3612
▁tim	-3613
agn	-3614
▁sites	-3615
▁consist	-3616
▁whose	-3617
▁physical	-3618
het	-3619
▁trip	-3620
▁vill	-3621
itely	-3622
CC	-3623
▁PM	-3624
▁workers	-3625
▁interested	-3626
▁dire	-3627
▁farm	-3628
IM	-3629
icon	-3630
onent	-3631
istics	-3632
▁Class	-3633
▁characters	-3634
▁Lou	-3635
▁Science	-3636
▁Twitter	-3637
ND	-3638
▁Play	-3639
rd	-3640
ounce	-3641
▁disease	-3642
more	-3643
nOne	-3644
ayout	-3645
▁repl	-3646
▁numbers	-3647
▁Met	-3648
unte	-3649
▁requirements	-3650
▁launch	-3651
▁wife	-3652
▁Bre	-3653
▁particularly	-3654
umber	-3655
▁vehicle	-3656
▁understanding	-3657
▁sometimes	-3658
▁Please	-3659
▁myself	-3660
acity	-3661
▁Most	-3662
▁cast	-3663
ocol	-3664
▁evidence	-3665
▁Flor	-3666
▁electric	-3667
▁beginning	-3668
▁excellent	-3669
▁integr	-3670
ero	-3671
bt	-3672
▁stock	-3673
▁shoot	-3674
▁prec	-3675
state	-3676
▁==	-3677
rey	-3678
▁pull	-3679
▁communities	-3680
▁remain	-3681
▁beyond	-3682
▁hospital	-3683
no	-3684
Col	-3685
▁altern	-3686
iers	-3687
▁Road	-3688
▁blood	-3689
▁Every	-3690
▁clin	-3691
▁French	-3692
▁Company	-3693
inn	-3694
BA	-3695
▁mission	-3696
▁helped	-3697
▁Over	-3698
▁science	-3699
▁liter	-3700
▁moved	-3701
▁finally	-3702
porary	-3703
▁dro	-3704
▁slow	-3705
▁Mary	-3706
ste	-3707
▁difference	-3708
▁activity	-3709
▁challenge	-3710
inese	-3711
▁existing	-3712
▁contain	-3713
▁smart	-3714
Tr	-3715
====	-3716
▁Mil	-3717
Qu	-3718
icine	-3719
▁Plan	-3720
▁population	-3721
care	-3722
mm	-3723
gar	-3724
rian	-3725
▁princ	-3726
annel	-3727
nPro	-3728
azon	-3729
▁Cap	-3730
▁carry	-3731
uration	-3732
file	-3733
▁shared	-3734
▁ge	-3735
fo	-3736
▁emb	-3737
▁hour	-3738
▁active	-3739
undred	-3740
▁supply	-3741
arily	-3742
uy	-3743
▁AM	-3744
ashion	-3745
▁exhib	-3746
▁journal	-3747
▁wild	-3748
reate	-3749
▁weight	-3750
▁Development	-3751
▁rent	-3752
▁laun	-3753
▁photos	-3754
▁academ	-3755
plate	-3756
▁warm	-3757
hens	-3758
▁stream	-3759
▁Mal	-3760
▁Education	-3761
OP	-3762
▁posted	-3763
▁Award	-3764
▁Democr	-3765
▁weekend	-3766
▁double	-3767
To	-3768
▁Spe	-3769
press	-3770
overy	-3771
▁overall	-3772
encies	-3773
▁completed	-3774
▁heard	-3775
▁benefit	-3776
▁studies	-3777
EM	-3778
▁thinking	-3779
▁storage	-3780
\")	-3781
rive	-3782
▁eight	-3783
▁reflect	-3784
fig	-3785
ruit	-3786
ander	-3787
lim	-3788
▁leader	-3789
▁imag	-3790
▁surround	-3791
▁Commission	-3792
vant	-3793
▁picture	-3794
▁speak	-3795
▁federal	-3796
▁ter	-3797
▁Rock	-3798
▁established	-3799
IV	-3800
TS	-3801
▁Sal	-3802
▁Church	-3803
▁investig	-3804
▁Bec	-3805
▁strugg	-3806
▁govern	-3807
▁Sam	-3808
▁Management	-3809
isf	-3810
▁note	-3811
▁names	-3812
rief	-3813
▁Star	-3814
resp	-3815
▁Good	-3816
▁emot	-3817
DA	-3818
You	-3819
▁meaning	-3820
▁River	-3821
edding	-3822
▁allowed	-3823
▁sy	-3824
▁opening	-3825
▁increased	-3826
ipl	-3827
▁offering	-3828
▁mill	-3829
▁void	-3830
▁relig	-3831
nSh	-3832
ivery	-3833
▁cancer	-3834
oles	-3835
▁society	-3836
soft	-3837
iled	-3838
agram	-3839
▁challenges	-3840
▁Franc	-3841
▁ahead	-3842
▁THE	-3843
▁shot	-3844
▁vari	-3845
▁advant	-3846
erences	-3847
▁Def	-3848
inner	-3849
▁partner	-3850
▁colle	-3851
▁Foundation	-3852
isation	-3853
ffee	-3854
▁spend	-3855
▁entry	-3856
▁purpose	-3857
▁arr	-3858
▁rules	-3859
▁Fore	-3860
berg	-3861
▁Bay	-3862
▁array	-3863
ronic	-3864
imal	-3865
▁occur	-3866
CH	-3867
▁Museum	-3868
▁artist	-3869
▁turned	-3870
but	-3871
▁attend	-3872
▁enh	-3873
▁frequ	-3874
▁Windows	-3875
▁setting	-3876
▁Sol	-3877
▁paid	-3878
▁origin	-3879
▁machine	-3880
▁devices	-3881
ologies	-3882
▁continu	-3883
ously	-3884
▁Thom	-3885
▁paint	-3886
▁throw	-3887
▁owners	-3888
▁lines	-3889
▁Let	-3890
▁hair	-3891
▁cru	-3892
▁spot	-3893
▁models	-3894
▁Press	-3895
ened	-3896
▁gra	-3897
abase	-3898
▁%	-3899
iller	-3900
ula	-3901
▁Leg	-3902
▁Free	-3903
▁priv	-3904
▁wants	-3905
anta	-3906
ya	-3907
▁bill	-3908
▁obtain	-3909
▁reduce	-3910
▁kitchen	-3911
▁wait	-3912
▁aim	-3913
▁background	-3914
▁ur	-3915
▁homes	-3916
▁Ret	-3917
▁Big	-3918
▁USA	-3919
nWhile	-3920
edy	-3921
gl	-3922
igned	-3923
mail	-3924
▁photo	-3925
▁structure	-3926
▁mis	-3927
▁holid	-3928
▁organizations	-3929
▁highest	-3930
▁transfer	-3931
▁offered	-3932
▁train	-3933
▁Project	-3934
▁exactly	-3935
▁extrem	-3936
▁century	-3937
▁force	-3938
▁pattern	-3939
▁sector	-3940
▁server	-3941
▁effects	-3942
▁journey	-3943
▁sustain	-3944
ifying	-3945
ervation	-3946
▁entertain	-3947
▁Camp	-3948
▁miles	-3949
ooth	-3950
▁pet	-3951
▁novel	-3952
▁died	-3953
ildren	-3954
▁Cup	-3955
▁aspect	-3956
▁temper	-3957
nMy	-3958
▁Web	-3959
▁Miss	-3960
iately	-3961
iny	-3962
▁nom	-3963
istan	-3964
▁pow	-3965
point	-3966
▁advice	-3967
▁responsible	-3968
CA	-3969
icago	-3970
▁Market	-3971
▁climate	-3972
▁*/\	-3973
▁strategy	-3974
▁Care	-3975
fit	-3976
▁jobs	-3977
▁middle	-3978
isco	-3979
roud	-3980
▁bath	-3981
term	-3982
▁Hot	-3983
anned	-3984
▁Sub	-3985
▁Journal	-3986
▁voice	-3987
▁biggest	-3988
▁spread	-3989
ycle	-3990
▁wish	-3991
▁replace	-3992
ini	-3993
ords	-3994
▁powerful	-3995
▁Ins	-3996
▁architect	-3997
rim	-3998
bert	-3999
▁guide	-4000
osh	-4001
▁feet	-4002
▁Academ	-4003
iar	-4004
▁Hill	-4005
▁apprec	-4006
▁Minister	-4007
▁helping	-4008
abin	-4009
antly	-4010
ework	-4011
PS	-4012
▁prices	-4013
▁trend	-4014
▁knew	-4015
▁Government	-4016
rapy	-4017
▁dram	-4018
▁Commit	-4019
dule	-4020
▁Rel	-4021
▁Sy	-4022
▁android	-4023
reme	-4024
▁eye	-4025
▁Top	-4026
▁passed	-4027
▁update	-4028
▁operations	-4029
ella	-4030
efore	-4031
▁initi	-4032
($	-4033
lor	-4034
ano	-4035
▁Mo	-4036
lear	-4037
▁pm	-4038
▁critical	-4039
ounds	-4040
▁doll	-4041
outhern	-4042
▁continued	-4043
▁District	-4044
olic	-4045
▁Hel	-4046
fd	-4047
▁ST	-4048
▁charge	-4049
▁status	-4050
▁feeling	-4051
▁basis	-4052
▁normal	-4053
▁Rob	-4054
▁Sum	-4055
ait	-4056
IG	-4057
iler	-4058
New	-4059
ius	-4060
rad	-4061
▁healthy	-4062
▁followed	-4063
▁loved	-4064
standing	-4065
▁Apple	-4066
▁attract	-4067
▁gar	-4068
apter	-4069
▁Micro	-4070
▁Alex	-4071
comp	-4072
▁epis	-4073
▁continues	-4074
▁church	-4075
anging	-4076
ulf	-4077
▁mer	-4078
▁officials	-4079
▁pages	-4080
▁views	-4081
▁Profess	-4082
▁context	-4083
▁Mad	-4084
▁comments	-4085
ga	-4086
▁calls	-4087
emic	-4088
▁Mus	-4089
▁refer	-4090
▁pressure	-4091
▁bur	-4092
▁stuff	-4093
AG	-4094
▁primary	-4095
▁stress	-4096
▁Mod	-4097
aling	-4098
▁blue	-4099
▁incred	-4100
▁remains	-4101
atre	-4102
▁definitely	-4103
▁Florida	-4104
▁elements	-4105
▁Sk	-4106
usband	-4107
oma	-4108
▁▁▁▁▁	-4109
▁truly	-4110
▁hundred	-4111
▁movement	-4112
▁Sil	-4113
▁People	-4114
▁audience	-4115
▁certainly	-4116
html	-4117
▁Community	-4118
▁Rem	-4119
▁civil	-4120
▁config	-4121
ato	-4122
ulate	-4123
ulture	-4124
js	-4125
▁produce	-4126
▁!	-4127
▁Ham	-4128
rupt	-4129
▁appropri	-4130
itude	-4131
ternal	-4132
issions	-4133
▁Island	-4134
▁Jo	-4135
▁rates	-4136
▁senior	-4137
▁funding	-4138
▁connection	-4139
▁Even	-4140
▁virt	-4141
▁immediately	-4142
ala	-4143
igr	-4144
▁Chinese	-4145
▁France	-4146
win	-4147
▁window	-4148
▁station	-4149
▁shown	-4150
▁spirit	-4151
▁null	-4152
▁residents	-4153
ellig	-4154
alls	-4155
▁Under	-4156
If	-4157
▁pen	-4158
▁unit	-4159
▁Society	-4160
asy	-4161
onents	-4162
▁master	-4163
▁scen	-4164
eful	-4165
▁economy	-4166
▁IT	-4167
ying	-4168
▁false	-4169
▁straight	-4170
▁developing	-4171
▁exerc	-4172
▁reb	-4173
irgin	-4174
▁retail	-4175
iture	-4176
▁absol	-4177
▁produced	-4178
owl	-4179
▁citiz	-4180
ria	-4181
▁internet	-4182
▁associated	-4183
lying	-4184
ervice	-4185
▁scene	-4186
▁ord	-4187
▁glass	-4188
▁Time	-4189
▁although	-4190
▁shop	-4191
▁Other	-4192
ctors	-4193
▁Data	-4194
▁conv	-4195
▁COVID	-4196
▁Grand	-4197
▁heat	-4198
▁songs	-4199
uty	-4200
yth	-4201
ba	-4202
ustr	-4203
▁ing	-4204
▁eyes	-4205
As	-4206
▁Mex	-4207
▁Smith	-4208
▁Women	-4209
▁argu	-4210
▁Carol	-4211
']	-4212
eters	-4213
nCl	-4214
vention	-4215
▁map	-4216
ulated	-4217
private	-4218
levision	-4219
▁wonderful	-4220
▁...	-4221
\");\	-4222
pping	-4223
gency	-4224
▁fear	-4225
▁alone	-4226
nThat	-4227
RO	-4228
▁Lake	-4229
▁letter	-4230
yan	-4231
▁prot	-4232
▁greater	-4233
▁UN	-4234
ette	-4235
▁foreign	-4236
▁measure	-4237
▁brow	-4238
▁Tom	-4239
▁peace	-4240
▁Engine	-4241
ady	-4242
▁advert	-4243
▁joined	-4244
▁session	-4245
▁experiences	-4246
▁weather	-4247
▁Att	-4248
▁Pri	-4249
▁patient	-4250
▁Str	-4251
ias	-4252
▁fab	-4253
Data	-4254
▁chem	-4255
▁CEO	-4256
azine	-4257
▁memory	-4258
He	-4259
kt	-4260
▁Show	-4261
▁reasons	-4262
orial	-4263
▁creative	-4264
▁basic	-4265
▁Media	-4266
▁demonstr	-4267
▁conference	-4268
▁row	-4269
▁George	-4270
▁manager	-4271
▁competition	-4272
▁leadership	-4273
▁drink	-4274
▁polic	-4275
▁manufacture	-4276
▁multi	-4277
clusive	-4278
▁artists	-4279
▁Sun	-4280
adian	-4281
▁Er	-4282
▁cat	-4283
oms	-4284
pack	-4285
▁easier	-4286
▁records	-4287
works	-4288
▁struct	-4289
lo	-4290
▁standards	-4291
▁hotel	-4292
▁eval	-4293
enture	-4294
▁opened	-4295
edia	-4296
IA	-4297
nergy	-4298
▁Que	-4299
icks	-4300
▁Also	-4301
▁afford	-4302
path	-4303
aming	-4304
▁Scott	-4305
▁establish	-4306
▁daughter	-4307
ania	-4308
ita	-4309
▁central	-4310
▁Los	-4311
▁cry	-4312
▁runs	-4313
▁thanks	-4314
imb	-4315
▁talent	-4316
▁secret	-4317
▁volunte	-4318
▁African	-4319
iques	-4320
inate	-4321
▁income	-4322
life	-4323
▁furn	-4324
▁capacity	-4325
ugh	-4326
▁beg	-4327
▁finished	-4328
▁compared	-4329
▁www	-4330
cher	-4331
▁format	-4332
▁protection	-4333
▁experienced	-4334
▁List	-4335
▁steps	-4336
▁element	-4337
▁appe	-4338
▁brother	-4339
ideos	-4340
▁push	-4341
▁cris	-4342
http	-4343
▁sch	-4344
osition	-4345
atically	-4346
▁score	-4347
▁Committee	-4348
▁presented	-4349
bour	-4350
nAcc	-4351
▁Matt	-4352
▁dress	-4353
▁Av	-4354
estic	-4355
▁cars	-4356
uled	-4357
▁opin	-4358
▁election	-4359
▁Nov	-4360
▁Tur	-4361
▁guid	-4362
includ	-4363
▁Times	-4364
▁fant	-4365
▁links	-4366
▁famous	-4367
▁da	-4368
string	-4369
▁Central	-4370
▁History	-4371
▁Congress	-4372
▁dedicated	-4373
▁sem	-4374
erry	-4375
road	-4376
value	-4377
atever	-4378
▁aren	-4379
orthern	-4380
▁claims	-4381
▁funds	-4382
▁cash	-4383
user	-4384
▁dang	-4385
▁item	-4386
▁regarding	-4387
ML	-4388
vere	-4389
Sc	-4390
nAr	-4391
atively	-4392
▁proced	-4393
▁Union	-4394
▁reality	-4395
▁Well	-4396
▁Series	-4397
▁Tor	-4398
▁Bill	-4399
['	-4400
ocation	-4401
▁shall	-4402
istered	-4403
▁proud	-4404
▁Chicago	-4405
ipped	-4406
▁adding	-4407
▁mechan	-4408
▁sleep	-4409
IR	-4410
▁fan	-4411
▁button	-4412
UL	-4413
▁passion	-4414
▁damage	-4415
▁legisl	-4416
Pl	-4417
\",\	-4418
▁delivery	-4419
ena	-4420
inger	-4421
▁Down	-4422
▁Lead	-4423
▁Many	-4424
▁Internet	-4425
SS	-4426
oute	-4427
orter	-4428
▁coach	-4429
▁driving	-4430
▁Vis	-4431
active	-4432
▁Since	-4433
▁maybe	-4434
▁thank	-4435
type	-4436
anda	-4437
▁larger	-4438
▁length	-4439
▁finish	-4440
gn	-4441
▁selected	-4442
rig	-4443
writ	-4444
da	-4445
essage	-4446
▁Wood	-4447
▁gift	-4448
▁?	-4449
▁Centre	-4450
▁Jew	-4451
▁Rad	-4452
orrow	-4453
▁Arts	-4454
▁husband	-4455
▁poll	-4456
▁satisf	-4457
antic	-4458
ipping	-4459
▁Christian	-4460
▁Sa	-4461
▁pictures	-4462
▁driver	-4463
perty	-4464
pective	-4465
nIs	-4466
well	-4467
▁output	-4468
▁previously	-4469
Value	-4470
▁owner	-4471
Ob	-4472
/**	-4473
ario	-4474
▁psych	-4475
▁prefer	-4476
For	-4477
▁Form	-4478
▁Fund	-4479
orney	-4480
▁thousands	-4481
▁Report	-4482
pload	-4483
▁plus	-4484
unning	-4485
▁}	-4486
nAb	-4487
▁lab	-4488
▁drop	-4489
▁grant	-4490
▁Social	-4491
ooking	-4492
▁independent	-4493
▁Mount	-4494
.)	-4495
▁See	-4496
▁Water	-4497
▁vacc	-4498
▁occas	-4499
▁launched	-4500
oving	-4501
▁methods	-4502
UN	-4503
):\	-4504
▁cas	-4505
▁becoming	-4506
▁estate	-4507
OW	-4508
▁util	-4509
▁Wil	-4510
▁catch	-4511
▁cities	-4512
ocuments	-4513
▁camera	-4514
▁forms	-4515
▁sharing	-4516
bol	-4517
▁accur	-4518
▁valid	-4519
▁facilities	-4520
▁dry	-4521
▁Special	-4522
▁fram	-4523
▁pieces	-4524
SP	-4525
nMore	-4526
▁Valley	-4527
▁looked	-4528
-\	-4529
itors	-4530
▁pool	-4531
▁happened	-4532
with	-4533
▁parties	-4534
▁Germany	-4535
roy	-4536
nPre	-4537
▁task	-4538
▁String	-4539
▁nut	-4540
▁testing	-4541
▁technical	-4542
▁vote	-4543
▁signed	-4544
▁Div	-4545
▁Kore	-4546
▁changing	-4547
▁Whe	-4548
▁transl	-4549
▁Brown	-4550
▁decor	-4551
▁estim	-4552
▁figure	-4553
▁experts	-4554
▁extremely	-4555
phone	-4556
▁Human	-4557
requ	-4558
abilities	-4559
▁contains	-4560
▁esc	-4561
Im	-4562
▁seeing	-4563
▁Champions	-4564
mes	-4565
zen	-4566
▁Head	-4567
▁trou	-4568
▁Robert	-4569
▁PC	-4570
nShe	-4571
icial	-4572
▁Town	-4573
▁anti	-4574
▁bottom	-4575
▁announce	-4576
▁limit	-4577
▁Elect	-4578
▁Tre	-4579
▁rank	-4580
roller	-4581
▁tit	-4582
▁cold	-4583
▁Jes	-4584
▁sport	-4585
▁teaching	-4586
Un	-4587
▁gun	-4588
friend	-4589
▁solid	-4590
craft	-4591
▁graph	-4592
▁requires	-4593
▁vision	-4594
▁despite	-4595
▁Family	-4596
nHere	-4597
▁OF	-4598
eless	-4599
▁couldn	-4600
ani	-4601
▁surface	-4602
An	-4603
▁Vict	-4604
▁arrest	-4605
▁gone	-4606
▁Festival	-4607
▁harm	-4608
▁rare	-4609
▁talking	-4610
▁agreement	-4611
▁department	-4612
▁guaran	-4613
semb	-4614
▁Russia	-4615
cell	-4616
▁wat	-4617
▁rob	-4618
▁manage	-4619
▁approx	-4620
going	-4621
▁Power	-4622
▁eat	-4623
▁adjust	-4624
▁batter	-4625
nUn	-4626
▁Det	-4627
▁Global	-4628
▁counter	-4629
▁monitor	-4630
▁sources	-4631
▁ce	-4632
▁films	-4633
▁disapp	-4634
CT	-4635
▁Week	-4636
▁ID	-4637
iner	-4638
▁classes	-4639
iat	-4640
▁Thanks	-4641
▁secure	-4642
▁garden	-4643
▁raised	-4644
azz	-4645
door	-4646
▁remove	-4647
▁Technology	-4648
▁Why	-4649
▁advance	-4650
▁poor	-4651
SA	-4652
▁Const	-4653
asket	-4654
enses	-4655
▁traffic	-4656
▁welcome	-4657
____	-4658
unately	-4659
ups	-4660
▁Bet	-4661
eline	-4662
▁lock	-4663
▁numerous	-4664
▁baby	-4665
▁researc	-4666
FL	-4667
▁lots	-4668
▁chief	-4669
Man	-4670
▁useful	-4671
igration	-4672
mary	-4673
▁hab	-4674
lt	-4675
oves	-4676
▁finding	-4677
▁transform	-4678
▁Mont	-4679
▁spect	-4680
▁Land	-4681
itness	-4682
burg	-4683
▁vs	-4684
ixt	-4685
udd	-4686
▁Kh	-4687
▁sty	-4688
▁cards	-4689
allery	-4690
▁rout	-4691
Home	-4692
▁environmental	-4693
▁Amazon	-4694
▁spl	-4695
mod	-4696
▁Enter	-4697
▁micro	-4698
▁learned	-4699
Is	-4700
known	-4701
▁ang	-4702
▁Love	-4703
inem	-4704
▁coffee	-4705
▁har	-4706
▁notice	-4707
▁explore	-4708
▁strength	-4709
va	-4710
iency	-4711
▁chair	-4712
▁actual	-4713
▁communication	-4714
▁Ir	-4715
▁Oh	-4716
▁err	-4717
▁Lear	-4718
▁south	-4719
▁winning	-4720
▁German	-4721
▁Angeles	-4722
▁Jul	-4723
▁org	-4724
▁selection	-4725
▁trial	-4726
▁classic	-4727
▁writer	-4728
▁perhaps	-4729
▁visual	-4730
▁district	-4731
RA	-4732
acks	-4733
▁Mel	-4734
▁focused	-4735
▁onto	-4736
App	-4737
nNow	-4738
▁rap	-4739
▁Cam	-4740
thlet	-4741
▁Long	-4742
host	-4743
▁calc	-4744
OD	-4745
▁excited	-4746
▁Team	-4747
▁advantage	-4748
BS	-4749
▁Fire	-4750
▁rich	-4751
inct	-4752
▁closed	-4753
▁Frank	-4754
▁sched	-4755
▁brain	-4756
▁practices	-4757
icious	-4758
▁Security	-4759
▁executive	-4760
▁input	-4761
▁species	-4762
▁violence	-4763
))	-4764
uit	-4765
▁core	-4766
ogue	-4767
▁spring	-4768
▁described	-4769
▁Virgin	-4770
),\	-4771
rowd	-4772
▁craft	-4773
PA	-4774
▁exception	-4775
▁Bur	-4776
idential	-4777
▁eth	-4778
▁heavy	-4779
▁majority	-4780
nel	-4781
lies	-4782
▁Louis	-4783
▁advanced	-4784
▁Food	-4785
ione	-4786
▁beat	-4787
▁administration	-4788
nRe	-4789
asure	-4790
scape	-4791
ses	-4792
▁wedding	-4793
▁command	-4794
ca	-4795
wo	-4796
?"}	-4797
▁situ	-4798
▁ideal	-4799
▁plants	-4800
▁amb	-4801
▁Secret	-4802
uilding	-4803
MS	-4804
▁instance	-4805
ENT	-4806
iano	-4807
▁operating	-4808
des	-4809
▁achie	-4810
▁Ma	-4811
▁kept	-4812
andemic	-4813
▁covered	-4814
bar	-4815
▁Information	-4816
▁generation	-4817
▁Mass	-4818
▁killed	-4819
▁repe	-4820
▁editor	-4821
▁meant	-4822
▁dyn	-4823
▁alle	-4824
Re	-4825
▁Main	-4826
▁impl	-4827
▁mental	-4828
▁agency	-4829
▁adopt	-4830
▁street	-4831
ean	-4832
iated	-4833
▁placed	-4834
▁becomes	-4835
▁appropriate	-4836
▁Den	-4837
▁pros	-4838
▁returned	-4839
▁brings	-4840
▁reached	-4841
hab	-4842
▁Tour	-4843
▁cultural	-4844
▁adapt	-4845
iced	-4846
po	-4847
ncy	-4848
▁comfortable	-4849
Get	-4850
▁package	-4851
▁winter	-4852
apers	-4853
▁fashion	-4854
IF	-4855
olars	-4856
▁handle	-4857
inding	-4858
▁Saf	-4859
hand	-4860
▁exciting	-4861
▁schedule	-4862
▁properties	-4863
▁reli	-4864
nby	-4865
hi	-4866
▁committed	-4867
nAccording	-4868
hent	-4869
▁professionals	-4870
▁older	-4871
ola	-4872
▁fol	-4873
lymp	-4874
Al	-4875
illa	-4876
▁centre	-4877
nFrom	-4878
▁Energy	-4879
▁appears	-4880
▁motor	-4881
▁separate	-4882
EW	-4883
oken	-4884
okes	-4885
uries	-4886
rehens	-4887
Wh	-4888
▁showed	-4889
▁evening	-4890
▁coverage	-4891
gers	-4892
ni	-4893
actions	-4894
▁Policy	-4895
▁north	-4896
▁Any	-4897
lock	-4898
▁incor	-4899
▁radio	-4900
▁direction	-4901
ker	-4902
▁flex	-4903
There	-4904
▁static	-4905
osure	-4906
isher	-4907
LC	-4908
oria	-4909
▁Paris	-4910
▁prepar	-4911
while	-4912
▁efficient	-4913
▁mist	-4914
▁script	-4915
▁Academy	-4916
rics	-4917
Exception	-4918
pace	-4919
▁haven	-4920
sk	-4921
CE	-4922
under	-4923
▁Each	-4924
▁managed	-4925
php	-4926
nPh	-4927
▁cloud	-4928
▁Atl	-4929
▁plays	-4930
▁scale	-4931
char	-4932
icians	-4933
▁lay	-4934
▁Mot	-4935
idden	-4936
▁reviews	-4937
▁concerns	-4938
▁television	-4939
▁Bi	-4940
reek	-4941
abled	-4942
▁vehicles	-4943
▁Their	-4944
▁ir	-4945
igan	-4946
▁metal	-4947
▁Econom	-4948
▁appeared	-4949
▁Invest	-4950
.'	-4951
▁Medical	-4952
▁Australian	-4953
▁Cle	-4954
▁slight	-4955
▁Aud	-4956
▁Johnson	-4957
/**\	-4958
▁rule	-4959
▁missing	-4960
▁generally	-4961
▁CD	-4962
▁Oper	-4963
▁survey	-4964
▁toward	-4965
rite	-4966
▁Richard	-4967
▁policies	-4968
▁Nor	-4969
▁sets	-4970
▁caused	-4971
inder	-4972
▁Iran	-4973
▁Peter	-4974
▁default	-4975
File	-4976
▁Network	-4977
▁factors	-4978
spe	-4979
▁discover	-4980
▁Russian	-4981
];\	-4982
▁mur	-4983
▁obvious	-4984
amm	-4985
▁youth	-4986
▁markets	-4987
night	-4988
▁database	-4989
▁Chief	-4990
▁keeping	-4991
NA	-4992
▁Canadian	-4993
osen	-4994
▁Indust	-4995
▁decisions	-4996
().	-4997
▁tree	-4998
▁Rights	-4999
▁na	-5000
▁holiday	-5001
▁restrict	-5002
What	-5003
▁flo	-5004
▁sea	-5005
ommod	-5006
▁depend	-5007
▁fra	-5008
▁nav	-5009
▁Sports	-5010
aven	-5011
▁sounds	-5012
▁decades	-5013
rc	-5014
ja	-5015
itage	-5016
▁fish	-5017
▁videos	-5018
',\	-5019
Ind	-5020
ucky	-5021
▁showing	-5022
▁presence	-5023
otes	-5024
rees	-5025
▁End	-5026
ulty	-5027
▁Tem	-5028
▁Back	-5029
▁matt	-5030
zy	-5031
arts	-5032
eria	-5033
ishes	-5034
pected	-5035
▁faith	-5036
▁param	-5037
▁crisis	-5038
▁EU	-5039
▁knows	-5040
▁starts	-5041
▁leaving	-5042
fol	-5043
othing	-5044
▁academic	-5045
▁operation	-5046
▁Sar	-5047
▁forces	-5048
▁Asia	-5049
▁Earth	-5050
▁Blue	-5051
nhttps	-5052
tenance	-5053
▁Western	-5054
DF	-5055
▁Call	-5056
▁Online	-5057
///	-5058
But	-5059
▁Pet	-5060
▁listed	-5061
▁visitors	-5062
▁determine	-5063
All	-5064
▁ven	-5065
ban	-5066
temporary	-5067
▁Color	-5068
▁bedroom	-5069
▁Today	-5070
▁Game	-5071
▁prepared	-5072
By	-5073
pty	-5074
▁Ver	-5075
kins	-5076
▁fill	-5077
riage	-5078
▁identify	-5079
▁infrast	-5080
▁facility	-5081
▁shape	-5082
▁musical	-5083
▁reference	-5084
▁supported	-5085
rical	-5086
nThese	-5087
▁Party	-5088
With	-5089
▁Som	-5090
reland	-5091
▁Ill	-5092
▁performed	-5093
▁rise	-5094
▁balance	-5095
▁happens	-5096
▁relevant	-5097
▁Jose	-5098
cean	-5099
▁Gal	-5100
▁corporate	-5101
inations	-5102
▁actions	-5103
▁animals	-5104
nNo	-5105
osis	-5106
nHowever	-5107
▁updated	-5108
pat	-5109
atin	-5110
▁Wall	-5111
▁About	-5112
▁injury	-5113
▁conven	-5114
▁payment	-5115
NS	-5116
essions	-5117
});\	-5118
▁fold	-5119
▁debut	-5120
▁truth	-5121
▁failed	-5122
▁citizens	-5123
▁Thomas	-5124
▁Make	-5125
▁tele	-5126
iders	-5127
▁gain	-5128
▁wear	-5129
▁crim	-5130
▁laws	-5131
▁Tri	-5132
▁Royal	-5133
▁Police	-5134
cks	-5135
usion	-5136
▁Check	-5137
▁therefore	-5138
ading	-5139
sole	-5140
ribute	-5141
▁diagn	-5142
▁Hospital	-5143
▁Americans	-5144
▁relax	-5145
▁Jim	-5146
▁Two	-5147
▁allowing	-5148
gery	-5149
lict	-5150
urban	-5151
▁dig	-5152
▁tend	-5153
▁island	-5154
▁documents	-5155
iden	-5156
▁sand	-5157
▁instit	-5158
▁Its	-5159
reens	-5160
▁Library	-5161
▁connected	-5162
atus	-5163
▁snow	-5164
▁index	-5165
▁appeal	-5166
utely	-5167
▁Real	-5168
▁Sand	-5169
MA	-5170
▁mentioned	-5171
ora	-5172
▁importance	-5173
II	-5174
▁Aff	-5175
▁ended	-5176
px	-5177
▁university	-5178
nNext	-5179
▁female	-5180
▁brief	-5181
prise	-5182
▁spending	-5183
▁watching	-5184
▁ban	-5185
▁Jud	-5186
▁ice	-5187
▁||	-5188
onds	-5189
\")\	-5190
▁Dev	-5191
▁fell	-5192
▁calling	-5193
ride	-5194
▁waiting	-5195
':	-5196
▁Mer	-5197
▁Use	-5198
▁listen	-5199
▁resist	-5200
SE	-5201
yer	-5202
▁Martin	-5203
▁serving	-5204
▁panel	-5205
▁During	-5206
▁beauty	-5207
▁arg	-5208
Object	-5209
oration	-5210
eder	-5211
▁bul	-5212
▁theme	-5213
▁restaurant	-5214
▁sweet	-5215
▁girls	-5216
▁anc	-5217
▁frame	-5218
▁guests	-5219
▁measures	-5220
sm	-5221
free	-5222
▁relationships	-5223
▁fuel	-5224
▁nine	-5225
▁battle	-5226
▁tips	-5227
▁optim	-5228
▁processes	-5229
OC	-5230
osted	-5231
▁Like	-5232
▁Organ	-5233
▁Although	-5234
▁Tim	-5235
▁officer	-5236
My	-5237
content	-5238
▁waste	-5239
aser	-5240
elect	-5241
▁pair	-5242
▁library	-5243
▁highlight	-5244
▁fourth	-5245
▁construct	-5246
▁neighbor	-5247
▁ment	-5248
▁introduced	-5249
asks	-5250
inst	-5251
▁Lo	-5252
ograp	-5253
▁Test	-5254
▁plenty	-5255
▁teacher	-5256
anche	-5257
▁encourage	-5258
▁Microsoft	-5259
index	-5260
▁Card	-5261
▁units	-5262
▁studio	-5263
▁sequ	-5264
param	-5265
▁thr	-5266
▁married	-5267
▁Joe	-5268
▁prison	-5269
▁teachers	-5270
▁housing	-5271
istration	-5272
fast	-5273
▁upgr	-5274
▁crowd	-5275
ura	-5276
▁Once	-5277
▁coast	-5278
▁Awards	-5279
▁shut	-5280
▁susp	-5281
▁commitment	-5282
uke	-5283
arsh	-5284
clusion	-5285
▁articles	-5286
▁distance	-5287
▁infrastructure	-5288
▁View	-5289
▁stick	-5290
ii	-5291
▁ign	-5292
▁Stand	-5293
▁Android	-5294
ompl	-5295
achel	-5296
▁alternative	-5297
▁▁▁▁▁▁▁▁▁▁▁▁▁▁▁	-5298
▁tag	-5299
▁NY	-5300
Class	-5301
irmed	-5302
▁breat	-5303
▁shopping	-5304
')	-5305
'.	-5306
url	-5307
▁TO	-5308
▁rooms	-5309
▁cells	-5310
ression	-5311
▁eventually	-5312
▁von	-5313
ivered	-5314
▁ship	-5315
lywood	-5316
▁hearing	-5317
▁joint	-5318
▁rom	-5319
▁Beach	-5320
▁emergency	-5321
▁burn	-5322
▁pandemic	-5323
acc	-5324
▁Die	-5325
▁Fort	-5326
▁Ireland	-5327
▁cabin	-5328
▁seg	-5329
▁hy	-5330
▁Last	-5331
▁Who	-5332
▁raise	-5333
oston	-5334
bur	-5335
▁Di	-5336
odies	-5337
▁Light	-5338
▁advoc	-5339
▁Mur	-5340
rick	-5341
▁ton	-5342
gal	-5343
▁investigation	-5344
stra	-5345
▁bird	-5346
osit	-5347
▁kick	-5348
nWhy	-5349
▁Cou	-5350
▁Georg	-5351
▁Way	-5352
▁Carolina	-5353
lines	-5354
▁wouldn	-5355
▁Olymp	-5356
▁bringing	-5357
▁coord	-5358
],	-5359
▁Arab	-5360
▁combination	-5361
GB	-5362
▁(\	-5363
▁Film	-5364
▁locations	-5365
▁Ro	-5366
▁otherwise	-5367
▁Cast	-5368
▁detect	-5369
▁revealed	-5370
▁Pan	-5371
▁apart	-5372
▁Fe	-5373
▁Pac	-5374
▁unc	-5375
And	-5376
▁rac	-5377
Test	-5378
▁According	-5379
athe	-5380
iser	-5381
▁Live	-5382
lig	-5383
▁noted	-5384
nCon	-5385
▁minute	-5386
etime	-5387
idth	-5388
pass	-5389
rum	-5390
▁except	-5391
▁square	-5392
▁assistance	-5393
PR	-5394
sub	-5395
');\	-5396
▁buildings	-5397
▁somew	-5398
▁Mexico	-5399
▁smaller	-5400
▁inspired	-5401
?\"	-5402
▁freed	-5403
iration	-5404
▁supporting	-5405
▁Mike	-5406
▁guys	-5407
▁resol	-5408
inating	-5409
▁dining	-5410
▁whatever	-5411
ta	-5412
item	-5413
▁fields	-5414
▁behavior	-5415
▁doctor	-5416
▁Boy	-5417
▁arm	-5418
▁clearly	-5419
▁returns	-5420
▁influence	-5421
▁accommod	-5422
▁comprehens	-5423
bed	-5424
▁forget	-5425
▁Prov	-5426
uclear	-5427
fortunately	-5428
▁spons	-5429
aks	-5430
Ad	-5431
▁menu	-5432
▁putting	-5433
▁posts	-5434
▁approximately	-5435
terest	-5436
▁minor	-5437
▁researchers	-5438
▁bra	-5439
water	-5440
▁jump	-5441
ublished	-5442
etry	-5443
▁occup	-5444
oses	-5445
▁partnership	-5446
ua	-5447
nTr	-5448
▁corner	-5449
post	-5450
▁Lim	-5451
▁category	-5452
LA	-5453
run	-5454
Text	-5455
code	-5456
▁renew	-5457
▁technologies	-5458
▁Administ	-5459
west	-5460
▁Old	-5461
▁Wild	-5462
nn	-5463
▁Chair	-5464
▁_	-5465
nDes	-5466
▁mostly	-5467
▁Virginia	-5468
▁Set	-5469
ocket	-5470
▁lett	-5471
▁Chris	-5472
nPlease	-5473
nDo	-5474
▁leaves	-5475
▁notes	-5476
elligence	-5477
▁Rev	-5478
▁decide	-5479
▁roof	-5480
▁repair	-5481
▁wire	-5482
obe	-5483
▁movies	-5484
▁promote	-5485
▁village	-5486
▁rat	-5487
rant	-5488
▁mail	-5489
▁veter	-5490
▁issued	-5491
▁proposed	-5492
SC	-5493
ownt	-5494
▁recorded	-5495
▁earth	-5496
how	-5497
rier	-5498
▁lit	-5499
▁sexual	-5500
▁seconds	-5501
▁rain	-5502
▁flav	-5503
▁Author	-5504
▁delivered	-5505
▁concert	-5506
▁thus	-5507
alled	-5508
▁flat	-5509
▁colors	-5510
▁stars	-5511
▁Prem	-5512
▁//	-5513
▁tro	-5514
▁lose	-5515
apping	-5516
▁bright	-5517
▁combined	-5518
▁ride	-5519
ears	-5520
person	-5521
▁forced	-5522
parent	-5523
▁favour	-5524
▁internal	-5525
TH	-5526
▁worksh	-5527
▁exchange	-5528
▁furniture	-5529
▁industrial	-5530
▁switch	-5531
▁Ref	-5532
▁provider	-5533
----------------	-5534
▁Lab	-5535
▁ec	-5536
anish	-5537
poration	-5538
▁applied	-5539
ilit	-5540
▁entre	-5541
▁selling	-5542
▁Jones	-5543
▁smooth	-5544
▁Conference	-5545
rolled	-5546
▁programme	-5547
eler	-5548
▁Squ	-5549
▁shel	-5550
▁Jesus	-5551
▁steel	-5552
\";\	-5553
▁Jon	-5554
▁dial	-5555
▁beach	-5556
▁consumers	-5557
▁Commun	-5558
▁shares	-5559
▁innovative	-5560
liament	-5561
iana	-5562
▁episode	-5563
▁cere	-5564
ansion	-5565
▁predict	-5566
▁buying	-5567
▁responsibility	-5568
*\	-5569
▁Middle	-5570
▁accident	-5571
▁Men	-5572
▁univers	-5573
▁▁▁▁▁▁▁▁▁▁▁▁▁▁	-5574
▁compar	-5575
▁Haw	-5576
▁Federal	-5577
▁approved	-5578
].	-5579
▁Lee	-5580
▁Far	-5581
▁discount	-5582
▁negative	-5583
unc	-5584
▁stores	-5585
paper	-5586
▁campus	-5587
▁worldwide	-5588
▁icon	-5589
▁willing	-5590
▁feels	-5591
▁depart	-5592
Er	-5593
▁ris	-5594
▁Trust	-5595
▁column	-5596
lication	-5597
▁discussion	-5598
▁Young	-5599
▁por	-5600
alle	-5601
ati	-5602
utor	-5603
▁Because	-5604
▁Jeff	-5605
▁exercise	-5606
agers	-5607
▁Scot	-5608
▁info	-5609
▁updates	-5610
▁functions	-5611
arks	-5612
▁expensive	-5613
irms	-5614
▁Environment	-5615
elines	-5616
▁audio	-5617
▁educational	-5618
▁prop	-5619
▁Japanese	-5620
▁revenue	-5621
HS	-5622
sl	-5623
uce	-5624
▁kid	-5625
▁seeking	-5626
eller	-5627
Phone	-5628
vely	-5629
▁Jun	-5630
▁fif	-5631
▁flight	-5632
oin	-5633
▁AND	-5634
Time	-5635
▁labor	-5636
▁Williams	-5637
▁wine	-5638
▁leads	-5639
,'	-5640
▁lux	-5641
https	-5642
prene	-5643
▁defense	-5644
▁Professor	-5645
related	-5646
▁Uk	-5647
ensions	-5648
opyright	-5649
ello	-5650
ifts	-5651
▁dance	-5652
▁motiv	-5653
▁Justice	-5654
▁maintenance	-5655
▁mit	-5656
een	-5657
▁pod	-5658
esome	-5659
uzz	-5660
▁mo	-5661
▁fat	-5662
nThey	-5663
▁employee	-5664
xy	-5665
▁Writ	-5666
▁guess	-5667
▁participants	-5668
je	-5669
▁accompl	-5670
▁featured	-5671
▁lived	-5672
pet	-5673
Form	-5674
EE	-5675
ads	-5676
page	-5677
▁Isl	-5678
uable	-5679
▁recip	-5680
mosp	-5681
opped	-5682
▁convert	-5683
▁gather	-5684
(\	-5685
olit	-5686
▁Penn	-5687
▁Ep	-5688
Over	-5689
▁Dou	-5690
▁discovered	-5691
nPl	-5692
▁stated	-5693
▁brands	-5694
▁clinical	-5695
ushed	-5696
▁debt	-5697
▁loan	-5698
▁distribution	-5699
▁techniques	-5700
▁bag	-5701
▁photograph	-5702
▁hero	-5703
▁designs	-5704
nam	-5705
▁upcoming	-5706
TC	-5707
▁weap	-5708
??	-5709
which	-5710
▁religious	-5711
amin	-5712
phas	-5713
▁whom	-5714
▁Charl	-5715
▁hundreds	-5716
▁dim	-5717
▁Obama	-5718
▁holds	-5719
▁installed	-5720
ician	-5721
power	-5722
ultural	-5723
▁boost	-5724
▁plug	-5725
ui	-5726
▁Gra	-5727
▁pal	-5728
ersey	-5729
▁enjoyed	-5730
▁edge	-5731
▁crime	-5732
▁indic	-5733
▁Adv	-5734
anged	-5735
apore	-5736
▁Walk	-5737
▁Mov	-5738
▁resource	-5739
oted	-5740
▁sav	-5741
▁Games	-5742
▁phil	-5743
▁Gen	-5744
▁institutions	-5745
nSome	-5746
▁medium	-5747
EST	-5748
ship	-5749
▁apps	-5750
▁registered	-5751
▁AL	-5752
izer	-5753
redit	-5754
▁bound	-5755
▁edition	-5756
nBe	-5757
och	-5758
rome	-5759
▁friendly	-5760
ais	-5761
▁opinion	-5762
icken	-5763
▁Master	-5764
▁regional	-5765
▁specifically	-5766
coh	-5767
▁Id	-5768
▁Exper	-5769
▁interests	-5770
▁historical	-5771
▁explained	-5772
▁rail	-5773
▁filled	-5774
icit	-5775
akistan	-5776
▁minimum	-5777
▁victory	-5778
▁tow	-5779
▁massive	-5780
▁collaboration	-5781
fin	-5782
▁IP	-5783
▁route	-5784
▁Anal	-5785
▁Custom	-5786
▁adults	-5787
▁affected	-5788
▁chemical	-5789
▁confidence	-5790
▁greatest	-5791
▁expertise	-5792
▁maximum	-5793
▁seat	-5794
script	-5795
▁Prote	-5796
▁courses	-5797
▁Ext	-5798
CO	-5799
▁Pay	-5800
▁honest	-5801
▁Second	-5802
▁accounts	-5803
▁au	-5804
▁asking	-5805
▁plastic	-5806
ali	-5807
pa	-5808
▁thoughts	-5809
▁familiar	-5810
▁Francisco	-5811
▁Ltd	-5812
athan	-5813
eries	-5814
▁aspects	-5815
fe	-5816
▁sam	-5817
▁rapid	-5818
size	-5819
▁les	-5820
anges	-5821
poses	-5822
▁quant	-5823
MP	-5824
hem	-5825
dered	-5826
ealand	-5827
▁Boston	-5828
▁bought	-5829
▁charges	-5830
real	-5831
▁tests	-5832
Add	-5833
▁windows	-5834
▁agreed	-5835
▁earned	-5836
▁arrange	-5837
▁domestic	-5838
dated	-5839
▁absolutely	-5840
TA	-5841
otal	-5842
rich	-5843
▁san	-5844
▁Phot	-5845
));\	-5846
▁flu	-5847
merce	-5848
▁begins	-5849
▁ingred	-5850
▁Disney	-5851
▁guy	-5852
dis	-5853
▁fee	-5854
▁topic	-5855
▁enable	-5856
▁serves	-5857
▁walking	-5858
sembly	-5859
nsel	-5860
▁}\	-5861
▁winner	-5862
▁Instagram	-5863
apes	-5864
▁league	-5865
▁strategies	-5866
▁RE	-5867
igen	-5868
▁pil	-5869
▁Cath	-5870
▁evalu	-5871
▁engineering	-5872
▁native	-5873
▁Hen	-5874
nCont	-5875
▁Gar	-5876
▁Find	-5877
▁museum	-5878
▁cop	-5879
Comp	-5880
stein	-5881
nAbout	-5882
▁critic	-5883
▁recommended	-5884
';\	-5885
rete	-5886
▁hyd	-5887
▁recovery	-5888
idering	-5889
ossible	-5890
▁circum	-5891
bc	-5892
▁Andrew	-5893
nAd	-5894
▁Spring	-5895
▁drivers	-5896
▁grad	-5897
▁mode	-5898
▁worry	-5899
nDe	-5900
▁bon	-5901
iversary	-5902
▁concent	-5903
bi	-5904
nRef	-5905
▁Mid	-5906
▁Both	-5907
▁temperature	-5908
▁Bob	-5909
▁agencies	-5910
▁fees	-5911
enced	-5912
ador	-5913
itionally	-5914
▁Children	-5915
ums	-5916
sen	-5917
▁volume	-5918
merican	-5919
▁Offic	-5920
▁doubt	-5921
▁awarded	-5922
▁diverse	-5923
▁extensive	-5924
uster	-5925
▁label	-5926
▁tickets	-5927
▁animal	-5928
nAdd	-5929
▁tun	-5930
********	-5931
▁officers	-5932
▁height	-5933
Set	-5934
mond	-5935
otic	-5936
▁crew	-5937
▁guitar	-5938
▁identified	-5939
outs	-5940
ffect	-5941
▁Senate	-5942
▁incredible	-5943
▁Dom	-5944
▁fle	-5945
isters	-5946
▁terror	-5947
function	-5948
On	-5949
▁equal	-5950
▁integ	-5951
▁colour	-5952
▁comprehensive	-5953
};\	-5954
▁sides	-5955
▁holding	-5956
No	-5957
▁Manager	-5958
▁witness	-5959
BI	-5960
nThanks	-5961
▁Support	-5962
▁typically	-5963
▁prepare	-5964
noon	-5965
king	-5966
▁properly	-5967
riz	-5968
▁Win	-5969
▁roles	-5970
▁planned	-5971
long	-5972
▁Log	-5973
▁trees	-5974
actory	-5975
▁era	-5976
astern	-5977
▁solar	-5978
▁Kar	-5979
▁tells	-5980
▁tough	-5981
▁Executive	-5982
ql	-5983
▁Take	-5984
lights	-5985
▁carried	-5986
▁justice	-5987
▁conversation	-5988
▁entertainment	-5989
acle	-5990
onom	-5991
eper	-5992
▁Equ	-5993
▁exec	-5994
▁topics	-5995
▁removed	-5996
▁appearance	-5997
nRes	-5998
Bl	-5999
hew	-6000
▁cheap	-6001
▁explain	-6002
▁fantastic	-6003
▁Charles	-6004
cy	-6005
comm	-6006
▁Girl	-6007
estyle	-6008
umer	-6009
▁Lord	-6010
▁politics	-6011
▁household	-6012
nic	-6013
etic	-6014
▁commission	-6015
When	-6016
▁virtual	-6017
asketball	-6018
▁investors	-6019
elly	-6020
▁egg	-6021
▁outdoor	-6022
▁authorities	-6023
▁Bas	-6024
aylor	-6025
▁freedom	-6026
▁neighborhood	-6027
▁(\"	-6028
▁profile	-6029
▁candidate	-6030
▁confirmed	-6031
lib	-6032
▁af	-6033
ptions	-6034
▁Digital	-6035
▁deploy	-6036
▁conducted	-6037
Le	-6038
..\	-6039
ansas	-6040
kes	-6041
▁draft	-6042
aked	-6043
profit	-6044
▁automatically	-6045
stream	-6046
▁Niger	-6047
▁defined	-6048
▁ongoing	-6049
▁consumer	-6050
▁Watch	-6051
▁McC	-6052
▁administr	-6053
▁processing	-6054
▁Lar	-6055
esterday	-6056
cho	-6057
▁dinner	-6058
▁forest	-6059
▁recognized	-6060
▁mal	-6061
▁enhance	-6062
▁Person	-6063
▁awards	-6064
▁improved	-6065
▁Foot	-6066
▁swim	-6067
▁settings	-6068
born	-6069
rage	-6070
▁Coll	-6071
▁Italian	-6072
▁identity	-6073
▁installation	-6074
nRead	-6075
▁drugs	-6076
▁execut	-6077
▁alleged	-6078
ournament	-6079
▁Southern	-6080
FA	-6081
▁border	-6082
forcement	-6083
▁detailed	-6084
▁slightly	-6085
▁protected	-6086
▁il	-6087
State	-6088
▁Step	-6089
▁facing	-6090
▁intended	-6091
▁ON	-6092
▁speech	-6093
▁Start	-6094
▁Pass	-6095
▁reform	-6096
▁components	-6097
EX	-6098
▁Max	-6099
group	-6100
table	-6101
▁consequ	-6102
▁readers	-6103
▁Through	-6104
▁auto	-6105
▁essay	-6106
iti	-6107
▁mort	-6108
respond	-6109
▁diet	-6110
▁tech	-6111
▁perman	-6112
▁aid	-6113
▁guest	-6114
▁Medicine	-6115
▁register	-6116
▁elim	-6117
▁follows	-6118
▁innovation	-6119
Par	-6120
ulner	-6121
▁turns	-6122
▁committee	-6123
▁transition	-6124
▁Engineering	-6125
▁negot	-6126
▁emphas	-6127
▁veget	-6128
oz	-6129
▁Night	-6130
▁faster	-6131
wa	-6132
nLast	-6133
▁Sign	-6134
▁dollars	-6135
▁manufacturing	-6136
▁stone	-6137
▁sustainable	-6138
hire	-6139
usher	-6140
▁taste	-6141
▁channel	-6142
▁lighting	-6143
▁Army	-6144
▁regul	-6145
▁decade	-6146
▁thread	-6147
▁historic	-6148
▁purposes	-6149
▁Ol	-6150
iary	-6151
▁Hor	-6152
▁Wal	-6153
▁shift	-6154
▁Space	-6155
▁Columb	-6156
▁invent	-6157
▁resolution	-6158
nCan	-6159
▁bes	-6160
▁signs	-6161
▁Season	-6162
▁belong	-6163
▁seemed	-6164
▁battery	-6165
onst	-6166
▁arts	-6167
iples	-6168
▁unless	-6169
▁attacks	-6170
ifications	-6171
ampion	-6172
▁arrived	-6173
PM	-6174
nPrevious	-6175
Path	-6176
gypt	-6177
▁scheduled	-6178
▁Italy	-6179
▁Hy	-6180
▁Studies	-6181
aped	-6182
ennis	-6183
▁scientific	-6184
▁successfully	-6185
Sp	-6186
ECT	-6187
mal	-6188
uality	-6189
kl	-6190
ras	-6191
▁athlet	-6192
▁atmosp	-6193
▁carbon	-6194
DS	-6195
utch	-6196
▁submit	-6197
Key	-6198
▁chain	-6199
▁boat	-6200
▁fort	-6201
ancer	-6202
▁honor	-6203
arp	-6204
ython	-6205
▁assets	-6206
iki	-6207
heck	-6208
▁busy	-6209
▁suit	-6210
▁twe	-6211
▁Daily	-6212
▁creation	-6213
urd	-6214
nInd	-6215
ingly	-6216
inton	-6217
▁Polit	-6218
case	-6219
▁supports	-6220
QL	-6221
uts	-6222
▁Ell	-6223
input	-6224
▁Have	-6225
▁Next	-6226
▁doors	-6227
ether	-6228
▁cooper	-6229
▁criminal	-6230
How	-6231
top	-6232
ingu	-6233
▁defend	-6234
▁charged	-6235
▁Ken	-6236
CS	-6237
Requ	-6238
iest	-6239
▁healthcare	-6240
▁MP	-6241
▁Van	-6242
▁mir	-6243
▁advertising	-6244
▁originally	-6245
osc	-6246
▁filed	-6247
▁Sea	-6248
▁owned	-6249
▁Secretary	-6250
▁Photo	-6251
nCom	-6252
lient	-6253
▁deals	-6254
▁matters	-6255
▁grew	-6256
▁landscape	-6257
ye	-6258
adium	-6259
▁cream	-6260
▁Michigan	-6261
▁champions	-6262
▁providers	-6263
▁Sup	-6264
osoph	-6265
▁gender	-6266
▁remote	-6267
▁Sciences	-6268
ATE	-6269
nGet	-6270
▁fly	-6271
▁engage	-6272
fa	-6273
▁auth	-6274
▁coal	-6275
▁Kingdom	-6276
▁websites	-6277
▁actor	-6278
▁urban	-6279
▁cleaning	-6280
ERS	-6281
▁involve	-6282
▁Spanish	-6283
▁founded	-6284
▁talks	-6285
▁awareness	-6286
▁featuring	-6287
▁Division	-6288
Context	-6289
ibilities	-6290
FF	-6291
Tube	-6292
▁ran	-6293
▁href	-6294
▁Thank	-6295
▁Donald	-6296
ira	-6297
▁cro	-6298
▁java	-6299
▁twice	-6300
▁rub	-6301
oster	-6302
▁disp	-6303
▁Video	-6304
▁practical	-6305
▁effectively	-6306
▁caught	-6307
▁remaining	-6308
Com	-6309
▁goods	-6310
▁houses	-6311
ocolate	-6312
▁perspective	-6313
ji	-6314
▁Hand	-6315
▁Ra	-6316
aded	-6317
▁assign	-6318
map	-6319
▁Ent	-6320
▁ends	-6321
▁interior	-6322
raine	-6323
▁Rest	-6324
▁Ap	-6325
▁agent	-6326
▁Pakistan	-6327
▁organis	-6328
▁($	-6329
▁iPhone	-6330
▁incident	-6331
ooks	-6332
utation	-6333
▁Pacific	-6334
▁competitive	-6335
unting	-6336
▁Brand	-6337
▁fellow	-6338
........	-6339
▁anywhere	-6340
CL	-6341
▁ourselves	-6342
eda	-6343
▁AT	-6344
oral	-6345
▁surrounding	-6346
▁Word	-6347
ighter	-6348
agon	-6349
▁participate	-6350
anger	-6351
orders	-6352
nQ	-6353
elled	-6354
▁Ohio	-6355
▁stret	-6356
▁)	-6357
nDr	-6358
evin	-6359
▁ast	-6360
▁judge	-6361
▁causes	-6362
▁dating	-6363
arrow	-6364
rency	-6365
▁Coast	-6366
▁scored	-6367
pret	-6368
▁celebrate	-6369
▁Prime	-6370
▁afternoon	-6371
▁contemporary	-6372
▁odd	-6373
aduate	-6374
▁Story	-6375
▁chosen	-6376
▁possibly	-6377
▁Access	-6378
car	-6379
▁Brook	-6380
▁Hotel	-6381
▁challenging	-6382
▁teach	-6383
▁Singapore	-6384
▁implementation	-6385
▁flood	-6386
cohol	-6387
endar	-6388
level	-6389
▁simpl	-6390
▁Cross	-6391
iveness	-6392
▁fabric	-6393
▁extended	-6394
BO	-6395
▁Only	-6396
ela	-6397
abeth	-6398
▁examples	-6399
cious	-6400
▁employment	-6401
▁Hon	-6402
▁efficiency	-6403
▁pun	-6404
▁authent	-6405
▁Ha	-6406
base	-6407
▁Jackson	-6408
▁bathroom	-6409
void	-6410
treturn	-6411
RC	-6412
▁emotional	-6413
▁circumst	-6414
upp	-6415
▁assum	-6416
▁reduced	-6417
▁depending	-6418
))\	-6419
flow	-6420
▁joy	-6421
▁elig	-6422
▁CA	-6423
java	-6424
▁cup	-6425
▁quiet	-6426
▁trading	-6427
../	-6428
▁objects	-6429
▁marriage	-6430
▁candidates	-6431
▁Product	-6432
izz	-6433
▁adm	-6434
▁speaking	-6435
▁professor	-6436
kin	-6437
npublic	-6438
▁moments	-6439
razil	-6440
▁receiving	-6441
▁affordable	-6442
illy	-6443
▁cart	-6444
▁Guide	-6445
▁!=	-6446
ells	-6447
Error	-6448
resents	-6449
▁Govern	-6450
hus	-6451
ulous	-6452
▁iron	-6453
▁teen	-6454
▁helpful	-6455
▁recording	-6456
onav	-6457
rence	-6458
▁spaces	-6459
▁monthly	-6460
▁Follow	-6461
▁parking	-6462
▁concerned	-6463
ih	-6464
Map	-6465
uis	-6466
enger	-6467
▁therapy	-6468
▁graduate	-6469
},\	-6470
▁sister	-6471
▁alongside	-6472
RL	-6473
erg	-6474
nSince	-6475
▁wealth	-6476
▁DC	-6477
▁shooting	-6478
gor	-6479
▁sympt	-6480
▁factor	-6481
▁protest	-6482
')\	-6483
▁bigger	-6484
▁orders	-6485
▁privacy	-6486
▁millions	-6487
▁determined	-6488
▁Pop	-6489
OU	-6490
▁Son	-6491
icket	-6492
▁Know	-6493
▁grown	-6494
fcr	-6495
▁CH	-6496
▁Kn	-6497
onto	-6498
());\	-6499
▁ring	-6500
▁tack	-6501
▁Perform	-6502
▁"\	-6503
ificate	-6504
▁messages	-6505
▁happening	-6506
Log	-6507
nNot	-6508
▁manner	-6509
link	-6510
▁license	-6511
aren	-6512
asts	-6513
▁ille	-6514
▁visiting	-6515
▁symbol	-6516
▁restaurants	-6517
▁Point	-6518
lements	-6519
▁HD	-6520
ircle	-6521
▁tight	-6522
nIm	-6523
▁decre	-6524
▁confirm	-6525
ylv	-6526
▁km	-6527
▁eating	-6528
▁AS	-6529
▁divid	-6530
can	-6531
sum	-6532
lections	-6533
At	-6534
owa	-6535
style	-6536
▁council	-6537
▁Jr	-6538
Event	-6539
nYour	-6540
▁strategic	-6541
onald	-6542
atures	-6543
orough	-6544
stract	-6545
arian	-6546
▁covers	-6547
▁failure	-6548
▁abuse	-6549
appy	-6550
etch	-6551
▁Plus	-6552
='	-6553
▁nor	-6554
▁rand	-6555
▁compos	-6556
▁desire	-6557
▁distinct	-6558
▁je	-6559
▁Force	-6560
Our	-6561
▁male	-6562
▁sample	-6563
▁theory	-6564
▁vulner	-6565
zer	-6566
sing	-6567
FC	-6568
cha	-6569
▁remind	-6570
▁directed	-6571
nApp	-6572
▁Roman	-6573
▁Action	-6574
hetic	-6575
▁none	-6576
from	-6577
othe	-6578
HT	-6579
eping	-6580
▁treated	-6581
▁Luc	-6582
▁lunch	-6583
uma	-6584
yber	-6585
▁missed	-6586
itutional	-6587
▁feedback	-6588
asp	-6589
▁lovely	-6590
▁retire	-6591
▁cutting	-6592
iro	-6593
bury	-6594
▁Cost	-6595
EG	-6596
▁Click	-6597
▁fruit	-6598
▁regularly	-6599
▁significantly	-6600
▁analy	-6601
owntown	-6602
▁matches	-6603
▁sitting	-6604
Read	-6605
rate	-6606
▁accessible	-6607
ko	-6608
else	-6609
▁apparent	-6610
▁considering	-6611
ucks	-6612
erves	-6613
▁Room	-6614
▁Ryan	-6615
▁narr	-6616
▁attorney	-6617
▁festival	-6618
RI	-6619
onym	-6620
▁warn	-6621
▁surprise	-6622
▁surgery	-6623
></	-6624
▁county	-6625
▁Disc	-6626
▁Liber	-6627
▁Ram	-6628
▁adds	-6629
▁soul	-6630
▁conflict	-6631
AA	-6632
elle	-6633
▁Key	-6634
▁Sher	-6635
▁tail	-6636
iverse	-6637
▁severe	-6638
▁herself	-6639
▁supposed	-6640
front	-6641
▁adult	-6642
▁celeb	-6643
▁standing	-6644
▁nurs	-6645
▁broken	-6646
▁filter	-6647
▁valuable	-6648
▁dangerous	-6649
▁platforms	-6650
oir	-6651
▁advis	-6652
▁fixed	-6653
▁stands	-6654
asters	-6655
Date	-6656
▁Mic	-6657
include	-6658
aa	-6659
iors	-6660
▁finance	-6661
tw	-6662
▁Ford	-6663
▁sessions	-6664
▁gro	-6665
nFirst	-6666
▁attended	-6667
eld	-6668
core	-6669
▁Control	-6670
▁ju	-6671
ribe	-6672
onavirus	-6673
▁occasion	-6674
▁represents	-6675
rip	-6676
ocated	-6677
▁Jewish	-6678
anchester	-6679
UM	-6680
eting	-6681
▁SP	-6682
▁alt	-6683
▁illustr	-6684
▁positions	-6685
amil	-6686
▁Vill	-6687
▁forg	-6688
ufffd	-6689
▁choices	-6690
▁Financial	-6691
▁Hom	-6692
▁interface	-6693
▁electronic	-6694
▁Ren	-6695
▁cycl	-6696
▁Contact	-6697
▁proceed	-6698
osa	-6699
▁Staff	-6700
}{	-6701
▁vital	-6702
obs	-6703
▁Theatre	-6704
▁Po	-6705
▁Sn	-6706
▁Mach	-6707
▁believes	-6708
agues	-6709
▁bike	-6710
▁perfectly	-6711
ATION	-6712
▁Area	-6713
▁grade	-6714
wan	-6715
▁mand	-6716
▁truck	-6717
▁YouTube	-6718
▁nuclear	-6719
gage	-6720
then	-6721
acking	-6722
▁foundation	-6723
▁tab	-6724
▁democr	-6725
▁lights	-6726
▁estimated	-6727
py	-6728
look	-6729
▁Kim	-6730
rix	-6731
▁delight	-6732
▁assessment	-6733
▁Full	-6734
Service	-6735
width	-6736
▁impressive	-6737
nAm	-6738
irty	-6739
▁scholars	-6740
ghan	-6741
▁Fair	-6742
lix	-6743
ista	-6744
▁pref	-6745
▁Joseph	-6746
▁closer	-6747
▁meetings	-6748
▁scr	-6749
▁storm	-6750
nFollow	-6751
========	-6752
▁figures	-6753
▁component	-6754
cknow	-6755
▁mine	-6756
▁accomp	-6757
▁formed	-6758
fficient	-6759
Or	-6760
▁trig	-6761
▁Where	-6762
▁Jersey	-6763
▁singer	-6764
▁Daniel	-6765
▁Creat	-6766
▁Little	-6767
Be	-6768
▁fulf	-6769
▁phase	-6770
▁Assist	-6771
▁conclud	-6772
▁adventure	-6773
▁ingredients	-6774
▁Georgia	-6775
▁Run	-6776
▁answers	-6777
▁habit	-6778
▁Northern	-6779
▁weak	-6780
▁dates	-6781
▁networks	-6782
▁apartment	-6783
!\"	-6784
gener	-6785
▁Harris	-6786
▁entirely	-6787
▁planet	-6788
abet	-6789
▁airport	-6790
▁regulations	-6791
><	-6792
▁Rh	-6793
▁Phys	-6794
▁recipe	-6795
▁reporting	-6796
▁engagement	-6797
nJust	-6798
▁Expl	-6799
TV	-6800
nb	-6801
nGo	-6802
ican	-6803
iable	-6804
▁kill	-6805
ersion	-6806
▁Radio	-6807
▁belief	-6808
▁ultimately	-6809
▁riv	-6810
inois	-6811
▁explains	-6812
▁Ash	-6813
▁Britain	-6814
ls	-6815
▁ok	-6816
yard	-6817
▁delay	-6818
▁Page	-6819
▁taught	-6820
▁legislation	-6821
▁Est	-6822
inally	-6823
▁Again	-6824
▁Santa	-6825
▁banks	-6826
▁closely	-6827
▁stopped	-6828
Up	-6829
ouston	-6830
Item	-6831
found	-6832
▁Broad	-6833
▁paying	-6834
span	-6835
▁Produ	-6836
olar	-6837
erman	-6838
▁Turn	-6839
ipal	-6840
▁inn	-6841
raq	-6842
▁ped	-6843
▁river	-6844
▁outstanding	-6845
Des	-6846
tif	-6847
▁Cov	-6848
othes	-6849
▁random	-6850
▁instrument	-6851
nm	-6852
title	-6853
letter	-6854
▁risks	-6855
udi	-6856
▁Code	-6857
▁Korea	-6858
cles	-6859
▁Labor	-6860
ila	-6861
▁Supreme	-6862
They	-6863
▁Fox	-6864
▁NOT	-6865
start	-6866
▁Taylor	-6867
▁unable	-6868
unicip	-6869
▁Ministry	-6870
▁PR	-6871
User	-6872
▁yes	-6873
erial	-6874
▁pharm	-6875
▁virus	-6876
▁offices	-6877
▁fighting	-6878
▁exclusive	-6879
oga	-6880
▁magazine	-6881
▁architecture	-6882
▁thick	-6883
▁licens	-6884
▁Download	-6885
▁Sus	-6886
▁rid	-6887
CD	-6888
▁awesome	-6889
▁streets	-6890
▁believed	-6891
▁entreprene	-6892
break	-6893
itals	-6894
izabeth	-6895
AB	-6896
PD	-6897
aron	-6898
gent	-6899
▁Blog	-6900
▁Camb	-6901
▁Mill	-6902
▁shock	-6903
▁totally	-6904
▁AR	-6905
▁sac	-6906
▁rough	-6907
▁profit	-6908
▁destroy	-6909
▁accepted	-6910
pan	-6911
open	-6912
▁boys	-6913
▁operate	-6914
▁statements	-6915
aka	-6916
▁Song	-6917
▁realize	-6918
▁uns	-6919
▁Steve	-6920
▁Yes	-6921
▁Queen	-6922
▁cookies	-6923
▁reliable	-6924
▁Fac	-6925
nAlso	-6926
▁worse	-6927
▁losing	-6928
nex	-6929
color	-6930
ership	-6931
▁guidance	-6932
▁performing	-6933
▁premium	-6934
▁hopes	-6935
▁prompt	-6936
▁correspond	-6937
nSc	-6938
draw	-6939
▁evol	-6940
▁split	-6941
VD	-6942
▁Ide	-6943
▁Jac	-6944
▁Tal	-6945
holders	-6946
▁broadcast	-6947
war	-6948
adel	-6949
suit	-6950
▁managing	-6951
rance	-6952
▁west	-6953
config	-6954
▁purchased	-6955
Of	-6956
oned	-6957
ifier	-6958
never	-6959
▁vast	-6960
▁Egypt	-6961
▁linked	-6962
Int	-6963
vas	-6964
umin	-6965
▁Rod	-6966
AY	-6967
▁pregn	-6968
▁minister	-6969
▁suc	-6970
▁tables	-6971
▁keeps	-6972
▁suitable	-6973
fil	-6974
▁Wat	-6975
▁Hard	-6976
▁moves	-6977
▁debate	-6978
▁Administration	-6979
▁golf	-6980
▁facilit	-6981
bec	-6982
Inst	-6983
adow	-6984
folio	-6985
▁Brazil	-6986
▁frequently	-6987
nhttp	-6988
▁dynamic	-6989
sem	-6990
▁Soft	-6991
▁passing	-6992
▁AI	-6993
uling	-6994
law	-6995
▁Es	-6996
▁trail	-6997
▁Republican	-6998
▁atmosphere	-6999
▁transportation	-7000
Comm	-7001
star	-7002
▁vary	-7003
length	-7004
▁guarantee	-7005
erver	-7006
▁acknow	-7007
EA	-7008
rav	-7009
nSee	-7010
▁Cat	-7011
▁Sky	-7012
Field	-7013
▁Place	-7014
▁circumstances	-7015
▁spoke	-7016
obby	-7017
nOver	-7018
▁Mult	-7019
▁shipping	-7020
▁Pot	-7021
▁root	-7022
▁rot	-7023
▁Pack	-7024
▁solve	-7025
▁nearby	-7026
▁Bal	-7027
ensity	-7028
▁presentation	-7029
bles	-7030
foot	-7031
▁Band	-7032
layout	-7033
▁medicine	-7034
pie	-7035
▁sad	-7036
query	-7037
▁entered	-7038
mony	-7039
▁API	-7040
▁Date	-7041
▁Philipp	-7042
▁Term	-7043
▁walls	-7044
▁birthday	-7045
▁password	-7046
ned	-7047
▁meal	-7048
▁cycle	-7049
▁expansion	-7050
▁Box	-7051
▁Davis	-7052
▁browser	-7053
▁sugar	-7054
▁disappoint	-7055
De	-7056
Not	-7057
▁Tech	-7058
nPosted	-7059
▁enthus	-7060
nAnother	-7061
▁degrees	-7062
$$	-7063
away	-7064
▁Cur	-7065
▁liqu	-7066
▁Colorado	-7067
▁Lin	-7068
▁wal	-7069
▁tasks	-7070
▁external	-7071
▁appointment	-7072
▁relatively	-7073
rizona	-7074
▁laugh	-7075
▁Before	-7076
▁typical	-7077
▁payments	-7078
nie	-7079
▁diam	-7080
▁liber	-7081
▁stake	-7082
▁Local	-7083
ho	-7084
\").	-7085
nSte	-7086
▁approval	-7087
▁mountain	-7088
▁firms	-7089
▁reserved	-7090
pir	-7091
miss	-7092
▁prove	-7093
▁increasingly	-7094
▁depth	-7095
▁wheel	-7096
razy	-7097
▁assert	-7098
olis	-7099
elcome	-7100
▁Instead	-7101
▁ancient	-7102
▁invited	-7103
awa	-7104
ige	-7105
ima	-7106
▁una	-7107
▁Conc	-7108
▁Connect	-7109
▁Catholic	-7110
▁delicious	-7111
orne	-7112
▁yesterday	-7113
That	-7114
▁exhibition	-7115
▁registration	-7116
▁bowl	-7117
rovers	-7118
▁kinds	-7119
▁achieved	-7120
▁injuries	-7121
▁impossible	-7122
enda	-7123
▁painting	-7124
vy	-7125
▁OS	-7126
coin	-7127
lets	-7128
image	-7129
▁pure	-7130
▁scientists	-7131
phy	-7132
▁king	-7133
▁Irish	-7134
ially	-7135
▁victims	-7136
ifer	-7137
teen	-7138
▁Scotland	-7139
▁generate	-7140
uan	-7141
ydney	-7142
Act	-7143
ili	-7144
nEn	-7145
math	-7146
umes	-7147
▁pip	-7148
▁dogs	-7149
▁creates	-7150
VE	-7151
hr	-7152
const	-7153
▁guard	-7154
▁spokes	-7155
▁Univers	-7156
▁tast	-7157
▁turning	-7158
▁bodies	-7159
▁imagine	-7160
▁versions	-7161
▁HT	-7162
anna	-7163
uting	-7164
▁Ball	-7165
▁appreciate	-7166
▁tom	-7167
▁Those	-7168
▁brown	-7169
ogether	-7170
▁inspiration	-7171
burgh	-7172
▁width	-7173
▁aircraft	-7174
▁Cas	-7175
▁authority	-7176
dden	-7177
oding	-7178
Message	-7179
▁upload	-7180
▁Hollywood	-7181
▁expectations	-7182
En	-7183
ao	-7184
acts	-7185
ilst	-7186
essed	-7187
inent	-7188
orable	-7189
▁acting	-7190
▁ticket	-7191
▁crucial	-7192
▁symptoms	-7193
erd	-7194
makers	-7195
▁Building	-7196
PC	-7197
▁Carl	-7198
▁Spain	-7199
▁horse	-7200
▁tur	-7201
▁fasc	-7202
▁Small	-7203
▁accurate	-7204
nUp	-7205
▁Cert	-7206
▁finds	-7207
orry	-7208
rivacy	-7209
▁agric	-7210
▁tested	-7211
▁hall	-7212
▁drama	-7213
▁stunning	-7214
▁Iraq	-7215
arters	-7216
▁mixed	-7217
▁arrested	-7218
bal	-7219
bro	-7220
▁organized	-7221
_{	-7222
▁hardware	-7223
tle	-7224
ando	-7225
▁trends	-7226
ben	-7227
endo	-7228
bsite	-7229
▁discl	-7230
▁Eth	-7231
▁mel	-7232
[]	-7233
▁MS	-7234
oking	-7235
▁widely	-7236
▁claimed	-7237
▁Partners	-7238
▁intelligence	-7239
ESS	-7240
icing	-7241
▁Four	-7242
▁Asian	-7243
▁improving	-7244
vin	-7245
avid	-7246
db	-7247
▁WH	-7248
▁template	-7249
▁Stan	-7250
▁solo	-7251
▁developers	-7252
▁initiative	-7253
yers	-7254
▁sole	-7255
▁joining	-7256
inson	-7257
▁ages	-7258
select	-7259
▁Another	-7260
▁capable	-7261
▁founder	-7262
▁producer	-7263
▁surf	-7264
▁Veg	-7265
▁substant	-7266
▁Mu	-7267
stone	-7268
▁Supp	-7269
▁trained	-7270
▁constantly	-7271
▁Ur	-7272
▁unf	-7273
author	-7274
▁excess	-7275
▁usual	-7276
anes	-7277
▁Cru	-7278
▁avail	-7279
anguages	-7280
▁engaged	-7281
▁Bu	-7282
▁Mir	-7283
▁tall	-7284
nDuring	-7285
version	-7286
▁dropped	-7287
▁Students	-7288
oric	-7289
▁Bon	-7290
aints	-7291
▁worst	-7292
isa	-7293
▁rh	-7294
Model	-7295
▁hits	-7296
▁alert	-7297
▁*\	-7298
pool	-7299
util	-7300
▁Kent	-7301
eople	-7302
▁Illinois	-7303
tes	-7304
▁clar	-7305
▁flash	-7306
▁telling	-7307
▁visited	-7308
▁variable	-7309
▁improvement	-7310
▁pleased	-7311
▁destination	-7312
▁residential	-7313
▁spr	-7314
▁Civil	-7315
tainment	-7316
▁contrast	-7317
trans	-7318
▁Wars	-7319
efully	-7320
ixture	-7321
ERE	-7322
▁Rom	-7323
▁tea	-7324
nesota	-7325
▁contest	-7326
▁suggested	-7327
pton	-7328
▁territ	-7329
▁Corporation	-7330
site	-7331
▁Tax	-7332
▁wins	-7333
▁sudden	-7334
▁Whether	-7335
TER	-7336
omet	-7337
worth	-7338
▁lift	-7339
▁silver	-7340
▁Iss	-7341
nEvery	-7342
▁trouble	-7343
inch	-7344
▁...\	-7345
▁contribute	-7346
earing	-7347
Request	-7348
▁immediate	-7349
▁newly	-7350
▁Football	-7351
nAny	-7352
▁climb	-7353
▁Senior	-7354
▁Account	-7355
▁Ray	-7356
▁syn	-7357
▁salt	-7358
▁bridge	-7359
▁legend	-7360
▁reward	-7361
▁flowers	-7362
nSp	-7363
▁mainly	-7364
▁Airport	-7365
▁younger	-7366
ordan	-7367
afe	-7368
▁heav	-7369
▁continuing	-7370
▁wearing	-7371
AND	-7372
aug	-7373
olec	-7374
▁Bang	-7375
▁tournament	-7376
▁empty	-7377
▁subsequ	-7378
▁constant	-7379
▁classroom	-7380
▁enem	-7381
▁Kenn	-7382
▁mini	-7383
weight	-7384
▁skill	-7385
ographic	-7386
▁recognition	-7387
info	-7388
▁trav	-7389
▁argument	-7390
ante	-7391
nRec	-7392
▁luxury	-7393
▁interpret	-7394
TR	-7395
iral	-7396
▁Rose	-7397
▁Works	-7398
▁anniversary	-7399
.)\	-7400
cons	-7401
▁Anth	-7402
▁Bern	-7403
▁isol	-7404
One	-7405
▁fo	-7406
▁Dar	-7407
▁meat	-7408
ensation	-7409
▁faculty	-7410
Array	-7411
▁integrated	-7412
'.\	-7413
oly	-7414
init	-7415
▁monitoring	-7416
▁FOR	-7417
▁Low	-7418
▁favourite	-7419
▁Democratic	-7420
▁diss	-7421
▁plot	-7422
aine	-7423
▁vo	-7424
▁pra	-7425
▁Travel	-7426
▁collected	-7427
▁resulting	-7428
▁reputation	-7429
ALL	-7430
aping	-7431
apped	-7432
▁loop	-7433
▁styles	-7434
novation	-7435
▁Capital	-7436
▁Mat	-7437
▁Lind	-7438
annels	-7439
▁Officer	-7440
▁capture	-7441
EP	-7442
▁Right	-7443
▁procedure	-7444
nMr	-7445
una	-7446
▁Ty	-7447
▁motion	-7448
▁tracks	-7449
▁aims	-7450
▁rural	-7451
▁scheme	-7452
▁ordered	-7453
▁seasons	-7454
▁hidden	-7455
▁till	-7456
▁Books	-7457
▁Pract	-7458
Def	-7459
Hand	-7460
ardens	-7461
▁taxes	-7462
▁communications	-7463
MC	-7464
▁[\	-7465
▁Agency	-7466
▁findings	-7467
▁Kong	-7468
▁admin	-7469
▁prime	-7470
▁elected	-7471
▁priority	-7472
▁expressed	-7473
▁extension	-7474
▁qualified	-7475
▁situations	-7476
xx	-7477
Image	-7478
▁bread	-7479
▁informed	-7480
▁discussed	-7481
▁Toronto	-7482
▁MA	-7483
gely	-7484
▁Fre	-7485
Override	-7486
ito	-7487
▁intent	-7488
edu	-7489
▁framework	-7490
▁compliance	-7491
▁represented	-7492
Ed	-7493
▁Systems	-7494
ints	-7495
check	-7496
▁likes	-7497
▁Child	-7498
jo	-7499
▁;	-7500
▁NFL	-7501
amber	-7502
itled	-7503
▁Summer	-7504
▁strike	-7505
▁mut	-7506
heast	-7507
ifies	-7508
▁console	-7509
Manager	-7510
▁franch	-7511
▁authors	-7512
ented	-7513
▁Stock	-7514
▁knowing	-7515
▁protein	-7516
▁generated	-7517
api	-7518
tra	-7519
▁ED	-7520
▁Bra	-7521
▁elev	-7522
▁Championship	-7523
▁Swed	-7524
▁murder	-7525
▁anticip	-7526
▁patterns	-7527
▁Manchester	-7528
▁performances	-7529
home	-7530
▁anx	-7531
ruption	-7532
▁Safety	-7533
▁manual	-7534
▁Country	-7535
▁industries	-7536
▁Stat	-7537
▁indeed	-7538
So	-7539
ido	-7540
rat	-7541
▁Buy	-7542
▁terr	-7543
nOther	-7544
▁Field	-7545
▁Henry	-7546
▁hosted	-7547
lik	-7548
ylvania	-7549
▁shower	-7550
▁yellow	-7551
IO	-7552
ogen	-7553
ellect	-7554
▁sheet	-7555
▁tradition	-7556
Aut	-7557
▁plate	-7558
▁remark	-7559
cd	-7560
uls	-7561
▁hosting	-7562
▁AN	-7563
▁Chem	-7564
▁Search	-7565
▁proposal	-7566
▁permanent	-7567
▁returning	-7568
▁Nick	-7569
▁suggests	-7570
▁Ba	-7571
▁agents	-7572
▁weekly	-7573
▁Houston	-7574
agen	-7575
ulpt	-7576
sey	-7577
▁Ut	-7578
▁dies	-7579
▁differences	-7580
nSub	-7581
▁Op	-7582
▁$\\	-7583
count	-7584
▁machines	-7585
▁Marketing	-7586
uing	-7587
▁listening	-7588
▁Does	-7589
▁expression	-7590
aci	-7591
nLe	-7592
nMay	-7593
quir	-7594
▁appointed	-7595
ponse	-7596
▁pray	-7597
ategory	-7598
▁east	-7599
▁Garden	-7600
▁extends	-7601
▁hat	-7602
▁flag	-7603
▁Model	-7604
▁module	-7605
▁lifestyle	-7606
▁Rail	-7607
▁Pen	-7608
Rep	-7609
▁NS	-7610
▁Avenue	-7611
▁lect	-7612
▁picked	-7613
▁replacement	-7614
▁designer	-7615
MT	-7616
▁AD	-7617
gorith	-7618
▁proof	-7619
▁neck	-7620
▁diversity	-7621
odd	-7622
aska	-7623
greg	-7624
▁Prince	-7625
▁alcohol	-7626
ez	-7627
ennes	-7628
▁Vice	-7629
▁publication	-7630
▁Prom	-7631
overty	-7632
ographer	-7633
▁illness	-7634
▁confident	-7635
▁faced	-7636
▁upper	-7637
▁concrete	-7638
▁presents	-7639
mo	-7640
ools	-7641
allas	-7642
▁Help	-7643
▁succeed	-7644
▁suspect	-7645
▁increases	-7646
yo	-7647
▁Victoria	-7648
▁enforcement	-7649
alo	-7650
osophy	-7651
▁Three	-7652
illiant	-7653
▁largely	-7654
▁exposure	-7655
▁convenient	-7656
plete	-7657
▁resc	-7658
▁conserv	-7659
▁procedures	-7660
▁possibility	-7661
RS	-7662
she	-7663
▁SU	-7664
▁breakfast	-7665
▁instructions	-7666
eh	-7667
uper	-7668
▁loves	-7669
▁cos	-7670
▁acquis	-7671
▁cooking	-7672
▁noticed	-7673
pg	-7674
▁ly	-7675
Gener	-7676
▁hasn	-7677
Config	-7678
▁Vegas	-7679
▁faces	-7680
▁relief	-7681
weet	-7682
▁opens	-7683
▁Comput	-7684
▁dealing	-7685
▁controvers	-7686
axy	-7687
ogy	-7688
nAre	-7689
▁dur	-7690
▁hoping	-7691
▁scenes	-7692
expected	-7693
anth	-7694
nOnce	-7695
▁prosec	-7696
▁revolution	-7697
VER	-7698
nOr	-7699
▁domain	-7700
▁counsel	-7701
uz	-7702
nCol	-7703
▁Farm	-7704
▁embr	-7705
igious	-7706
▁mouth	-7707
▁fishing	-7708
▁division	-7709
low	-7710
cover	-7711
nMany	-7712
▁Biden	-7713
you	-7714
▁PH	-7715
▁synt	-7716
▁surprising	-7717
lyn	-7718
▁ceremony	-7719
▁description	-7720
▁manufacturers	-7721
From	-7722
▁writers	-7723
▁Insurance	-7724
▁chocolate	-7725
▁Las	-7726
▁struggle	-7727
▁OR	-7728
▁zone	-7729
▁cable	-7730
▁Link	-7731
▁Kevin	-7732
▁victim	-7733
▁eligible	-7734
▁requests	-7735
▁carefully	-7736
rog	-7737
▁LLC	-7738
▁Sym	-7739
DP	-7740
nMost	-7741
umns	-7742
▁illegal	-7743
▁Elizabeth	-7744
!!\	-7745
ockey	-7746
▁Current	-7747
TO	-7748
gi	-7749
len	-7750
////	-7751
flix	-7752
▁Order	-7753
▁trick	-7754
▁Edition	-7755
▁Station	-7756
▁electricity	-7757
oval	-7758
▁kil	-7759
▁vice	-7760
▁layer	-7761
▁chapter	-7762
▁SC	-7763
ologist	-7764
▁butter	-7765
▁chicken	-7766
▁Ly	-7767
ashed	-7768
▁discipl	-7769
▁replaced	-7770
pare	-7771
wind	-7772
▁Base	-7773
▁crash	-7774
▁basketball	-7775
md	-7776
▁Ms	-7777
▁Using	-7778
▁query	-7779
▁formal	-7780
▁lessons	-7781
▁Map	-7782
▁nic	-7783
nThank	-7784
vision	-7785
achelor	-7786
▁titles	-7787
▁everyday	-7788
aza	-7789
label	-7790
▁purs	-7791
▁injured	-7792
ubs	-7793
▁Has	-7794
▁Cook	-7795
▁shots	-7796
▁Arizona	-7797
▁compare	-7798
▁submitted	-7799
▁connections	-7800
Go	-7801
ami	-7802
▁Oak	-7803
▁union	-7804
▁portion	-7805
▁rein	-7806
ushing	-7807
▁Silver	-7808
▁Saint	-7809
▁saved	-7810
▁Ho	-7811
▁jew	-7812
itzer	-7813
▁Event	-7814
▁undert	-7815
▁NAS	-7816
▁Sydney	-7817
PP	-7818
nMar	-7819
▁Try	-7820
▁MD	-7821
regon	-7822
▁glad	-7823
nClick	-7824
ospitals	-7825
sylvania	-7826
▁describe	-7827
▁capabilities	-7828
▁jun	-7829
▁Pict	-7830
▁Il	-7831
▁lin	-7832
▁vend	-7833
position	-7834
▁experiment	-7835
▁volunteers	-7836
▁potentially	-7837
Count	-7838
cs	-7839
▁III	-7840
▁Roll	-7841
▁giant	-7842
▁lawyer	-7843
▁literature	-7844
anz	-7845
▁Line	-7846
▁Friend	-7847
▁announcement	-7848
AF	-7849
ci	-7850
np	-7851
▁rear	-7852
adelph	-7853
nDon	-7854
ouch	-7855
riers	-7856
shire	-7857
▁organic	-7858
▁Ak	-7859
iami	-7860
ikes	-7861
that	-7862
▁Adam	-7863
height	-7864
ingham	-7865
▁Harry	-7866
▁Credit	-7867
▁Magazine	-7868
irk	-7869
▁behalf	-7870
▁acceler	-7871
Info	-7872
▁Rog	-7873
opher	-7874
▁producing	-7875
xml	-7876
▁wra	-7877
▁definition	-7878
onder	-7879
▁Wales	-7880
stal	-7881
▁lie	-7882
ensus	-7883
igate	-7884
inator	-7885
▁resort	-7886
▁rising	-7887
▁involving	-7888
result	-7889
nAlthough	-7890
▁introduction	-7891
nBl	-7892
pire	-7893
▁Mah	-7894
▁Quest	-7895
▁Columbia	-7896
▁primarily	-7897
She	-7898
▁mere	-7899
▁chart	-7900
▁factory	-7901
▁equipped	-7902
▁elections	-7903
▁seriously	-7904
▁structures	-7905
▁ease	-7906
▁searching	-7907
▁Ven	-7908
▁Square	-7909
▁remained	-7910
Fi	-7911
▁SS	-7912
heim	-7913
▁Blu	-7914
nJohn	-7915
▁milk	-7916
▁strict	-7917
▁doctors	-7918
▁supplies	-7919
▁Collection	-7920
true	-7921
▁voc	-7922
making	-7923
▁Store	-7924
▁drawing	-7925
han	-7926
▁rig	-7927
▁sick	-7928
create	-7929
▁sizes	-7930
▁Ukraine	-7931
▁recognize	-7932
▁marks	-7933
<?	-7934
brid	-7935
▁Bell	-7936
▁Advis	-7937
▁chose	-7938
▁Ter	-7939
\"></	-7940
▁Fred	-7941
▁facts	-7942
▁seats	-7943
▁Minnesota	-7944
▁consistent	-7945
sea	-7946
▁Cro	-7947
▁Viet	-7948
▁fifth	-7949
nection	-7950
▁reader	-7951
▁guidelines	-7952
cted	-7953
frac	-7954
▁Smart	-7955
▁&&	-7956
▁Sat	-7957
▁mac	-7958
▁acts	-7959
igrants	-7960
▁voters	-7961
adelphia	-7962
▁Resources	-7963
vol	-7964
▁Bad	-7965
▁Bol	-7966
▁Architect	-7967
left	-7968
▁acid	-7969
ulating	-7970
▁marked	-7971
▁regions	-7972
▁CS	-7973
▁Ca	-7974
▁Nic	-7975
bel	-7976
▁forth	-7977
▁Modern	-7978
▁realized	-7979
vo	-7980
▁soil	-7981
▁insert	-7982
▁savings	-7983
▁covering	-7984
▁principles	-7985
▁ein	-7986
▁wave	-7987
▁zero	-7988
▁Berlin	-7989
iac	-7990
onic	-7991
▁participation	-7992
LO	-7993
cers	-7994
▁Affairs	-7995
▁Records	-7996
▁Bit	-7997
icted	-7998
ormal	-7999
oured	-8000
utter	-8001
▁Maybe	-8002
▁Images	-8003
▁attrib	-8004
bin	-8005
umps	-8006
▁Lic	-8007
enter	-8008
▁Guard	-8009
tpublic	-8010
▁Contin	-8011
▁sought	-8012
▁Gallery	-8013
LS	-8014
▁Bowl	-8015
▁pump	-8016
nclass	-8017
raf	-8018
▁Non	-8019
iscons	-8020
▁organisation	-8021
made	-8022
rell	-8023
▁std	-8024
icide	-8025
▁bear	-8026
ployment	-8027
▁Ess	-8028
▁Look	-8029
▁pace	-8030
▁catal	-8031
▁Learning	-8032
▁duty	-8033
▁Brian	-8034
▁loans	-8035
▁categories	-8036
▁membership	-8037
har	-8038
▁Lew	-8039
angle	-8040
▁Chall	-8041
▁Heart	-8042
▁Ox	-8043
utors	-8044
▁Sant	-8045
▁soph	-8046
▁actors	-8047
▁humans	-8048
isconsin	-8049
▁instruct	-8050
▁recommendations	-8051
nLet	-8052
being	-8053
▁Orig	-8054
▁stored	-8055
nQu	-8056
fall	-8057
rypt	-8058
▁Name	-8059
▁spin	-8060
enders	-8061
▁occurred	-8062
▁assistant	-8063
▁Kat	-8064
▁Clin	-8065
▁dish	-8066
▁Price	-8067
▁deaths	-8068
aux	-8069
▁errors	-8070
▁assault	-8071
▁corn	-8072
▁technique	-8073
▁manufacturer	-8074
▁hyp	-8075
▁venue	-8076
▁heritage	-8077
nEd	-8078
▁hire	-8079
Rec	-8080
nthe	-8081
intage	-8082
▁papers	-8083
▁reducing	-8084
▁Democrats	-8085
▁Fun	-8086
▁Ult	-8087
▁tor	-8088
ilton	-8089
month	-8090
▁Wilson	-8091
▁ending	-8092
▁memories	-8093
news	-8094
▁Bat	-8095
▁chat	-8096
▁Clinton	-8097
▁personally	-8098
▁foods	-8099
connect	-8100
▁obtained	-8101
▁proven	-8102
▁permission	-8103
rend	-8104
▁Hop	-8105
▁Brad	-8106
▁bench	-8107
▁beer	-8108
▁scope	-8109
▁sight	-8110
▁Editor	-8111
▁Express	-8112
aning	-8113
ector	-8114
').	-8115
▁Jenn	-8116
gov	-8117
▁arms	-8118
▁Student	-8119
▁Maryland	-8120
▁Na	-8121
▁Bru	-8122
Index	-8123
inity	-8124
bourne	-8125
▁heads	-8126
quality	-8127
▁promise	-8128
▁Mountain	-8129
▁referred	-8130
nCar	-8131
▁Emer	-8132
▁Requ	-8133
▁coup	-8134
itting	-8135
▁funny	-8136
ramework	-8137
>>	-8138
awn	-8139
▁/>\	-8140
▁Cooper	-8141
▁export	-8142
aret	-8143
American	-8144
▁portfolio	-8145
▁colleagues	-8146
pay	-8147
iour	-8148
▁mob	-8149
▁batt	-8150
▁cinem	-8151
▁oppos	-8152
▁fairly	-8153
▁surprised	-8154
HL	-8155
▁Prize	-8156
▁Common	-8157
enth	-8158
ktop	-8159
river	-8160
terior	-8161
▁incredibly	-8162
Ent	-8163
OUR	-8164
▁Put	-8165
model	-8166
rible	-8167
▁shops	-8168
▁Stephen	-8169
▁repeated	-8170
KE	-8171
▁une	-8172
ytics	-8173
▁Tony	-8174
omy	-8175
▁sees	-8176
▁charity	-8177
game	-8178
▁racing	-8179
eta	-8180
eras	-8181
▁Bul	-8182
▁comedy	-8183
OST	-8184
urse	-8185
▁rose	-8186
▁Nations	-8187
▁suffering	-8188
Client	-8189
▁Sound	-8190
▁FR	-8191
▁PS	-8192
last	-8193
nThen	-8194
▁File	-8195
▁Further	-8196
nvar	-8197
holder	-8198
▁yards	-8199
ea	-8200
▁Hold	-8201
▁eleg	-8202
▁insight	-8203
▁Training	-8204
▁southern	-8205
▁transaction	-8206
ova	-8207
▁usage	-8208
▁Pennsylvania	-8209
▁Entertainment	-8210
▁ma	-8211
▁Dog	-8212
▁buff	-8213
REE	-8214
nand	-8215
▁Anton	-8216
▁sending	-8217
▁Hong	-8218
▁recover	-8219
GA	-8220
▁sky	-8221
ailed	-8222
▁tiny	-8223
▁Mobile	-8224
▁refuge	-8225
▁channels	-8226
▁ensuring	-8227
main	-8228
claim	-8229
▁poly	-8230
''	-8231
hop	-8232
▁Fall	-8233
▁Palest	-8234
▁Should	-8235
▁saving	-8236
▁forecast	-8237
▁vit	-8238
iform	-8239
▁fest	-8240
rition	-8241
▁accused	-8242
ellectual	-8243
▁languages	-8244
▁encouraged	-8245
▁programming	-8246
rogen	-8247
winning	-8248
▁Change	-8249
▁driven	-8250
▁rental	-8251
▁farmers	-8252
▁vaccine	-8253
▁pic	-8254
cific	-8255
▁Barb	-8256
▁Future	-8257
▁reasonable	-8258
▁Bed	-8259
▁overw	-8260
▁consists	-8261
ME	-8262
Out	-8263
▁Cond	-8264
▁font	-8265
▁retirement	-8266
▁los	-8267
▁Members	-8268
dev	-8269
▁CN	-8270
▁si	-8271
ername	-8272
▁crypt	-8273
▁arrive	-8274
▁restrictions	-8275
▁sauce	-8276
missions	-8277
▁closing	-8278
▁thorough	-8279
▁Month	-8280
▁Sales	-8281
▁theatre	-8282
HA	-8283
esy	-8284
▁Sir	-8285
iking	-8286
▁Feat	-8287
▁governments	-8288
nPr	-8289
odge	-8290
owing	-8291
sters	-8292
▁Java	-8293
▁Studio	-8294
amsung	-8295
▁pitch	-8296
amental	-8297
▁guarante	-8298
▁enterprise	-8299
▁Os	-8300
▁lies	-8301
▁aside	-8302
▁gained	-8303
▁studied	-8304
enz	-8305
ulum	-8306
▁het	-8307
▁spark	-8308
▁reject	-8309
▁specialist	-8310
fire	-8311
▁Ali	-8312
▁luck	-8313
▁broke	-8314
▁stretch	-8315
▁initially	-8316
▁association	-8317
urns	-8318
▁phen	-8319
Element	-8320
orgeous	-8321
▁Jordan	-8322
▁Living	-8323
▁extent	-8324
▁normally	-8325
▁subscrib	-8326
▁contributions	-8327
ilty	-8328
ateful	-8329
erk	-8330
lar	-8331
?\"\	-8332
inals	-8333
▁Latin	-8334
▁extreme	-8335
▁flexible	-8336
olo	-8337
etts	-8338
▁unus	-8339
▁Sarah	-8340
▁drawn	-8341
▁ET	-8342
ainer	-8343
resident	-8344
▁weapons	-8345
▁och	-8346
prote	-8347
▁baseball	-8348
acher	-8349
▁grass	-8350
▁Miller	-8351
▁warrant	-8352
▁Dead	-8353
▁tomorrow	-8354
▁Imm	-8355
▁Eric	-8356
▁cheese	-8357
▁neighb	-8358
▁forever	-8359
▁stations	-8360
Ass	-8361
▁wet	-8362
System	-8363
▁organisations	-8364
Ab	-8365
nAut	-8366
▁bonus	-8367
uns	-8368
▁bond	-8369
▁magn	-8370
▁Privacy	-8371
▁accomplish	-8372
esh	-8373
wing	-8374
otten	-8375
▁align	-8376
aturally	-8377
▁incorpor	-8378
▁bars	-8379
engers	-8380
▁dreams	-8381
▁demands	-8382
▁champion	-8383
▁reduction	-8384
▁deck	-8385
▁logo	-8386
nWhere	-8387
▁subsid	-8388
▁speaker	-8389
▁integration	-8390
akh	-8391
▁Nav	-8392
▁pour	-8393
▁Diego	-8394
▁setup	-8395
▁letters	-8396
nEl	-8397
▁Sav	-8398
▁raw	-8399
▁officially	-8400
ds	-8401
▁Bud	-8402
▁URL	-8403
▁boss	-8404
▁Bridge	-8405
km	-8406
aire	-8407
nusing	-8408
▁causing	-8409
ventional	-8410
▁celebration	-8411
oun	-8412
▁mining	-8413
nHome	-8414
▁Dark	-8415
▁shoes	-8416
▁Finance	-8417
▁leather	-8418
▁persons	-8419
▁downtown	-8420
▁consequences	-8421
aya	-8422
▁Bry	-8423
▁Image	-8424
▁Table	-8425
▁respectively	-8426
){\	-8427
▁ist	-8428
berry	-8429
▁Sche	-8430
ickets	-8431
▁branch	-8432
▁equival	-8433
nTop	-8434
Press	-8435
nNote	-8436
▁warning	-8437
▁drinking	-8438
▁outcomes	-8439
irts	-8440
email	-8441
button	-8442
ortion	-8443
▁define	-8444
▁diseases	-8445
▁suffered	-8446
!\"\	-8447
iere	-8448
wart	-8449
inking	-8450
▁narrow	-8451
BM	-8452
alty	-8453
olean	-8454
owers	-8455
▁Jean	-8456
▁Dream	-8457
▁Turkey	-8458
▁controls	-8459
▁treatments	-8460
ters	-8461
▁tank	-8462
▁initiatives	-8463
▁Philadelphia	-8464
ypes	-8465
▁yield	-8466
▁Forest	-8467
▁centers	-8468
▁opposite	-8469
▁certified	-8470
ULL	-8471
▁Rs	-8472
rated	-8473
▁pilot	-8474
▁roads	-8475
▁analyst	-8476
▁gallery	-8477
▁LA	-8478
valid	-8479
▁aggress	-8480
▁investments	-8481
▁Eastern	-8482
▁acquired	-8483
▁documentation	-8484
▁AC	-8485
iley	-8486
▁Nigeria	-8487
▁childhood	-8488
▁Protection	-8489
▁exem	-8490
▁plane	-8491
▁shell	-8492
▁Golden	-8493
web	-8494
▁Hay	-8495
acked	-8496
▁experim	-8497
%\	-8498
PL	-8499
▁Gi	-8500
▁Wi	-8501
achus	-8502
▁Publ	-8503
▁Cloud	-8504
▁photography	-8505
local	-8506
▁newspaper	-8507
Inter	-8508
▁Psych	-8509
▁extract	-8510
▁granted	-8511
▁Industry	-8512
▁calendar	-8513
▁universities	-8514
oen	-8515
anny	-8516
▁als	-8517
▁gifts	-8518
▁container	-8519
▁Parliament	-8520
nRep	-8521
▁PDF	-8522
▁Need	-8523
nToday	-8524
riving	-8525
▁Memorial	-8526
▁gaming	-8527
▁garage	-8528
▁screens	-8529
▁implemented	-8530
TP	-8531
atar	-8532
▁rum	-8533
unter	-8534
▁clubs	-8535
▁handling	-8536
▁uncertain	-8537
UI	-8538
nTags	-8539
▁lapt	-8540
▁displ	-8541
▁layout	-8542
▁basically	-8543
aze	-8544
pha	-8545
ront	-8546
▁volunteer	-8547
▁Capt	-8548
▁Marc	-8549
▁fitness	-8550
▁attached	-8551
▁spiritual	-8552
boy	-8553
ader	-8554
▁Sport	-8555
▁folks	-8556
▁inner	-8557
entures	-8558
▁extend	-8559
▁unknown	-8560
▁brilliant	-8561
bled	-8562
writer	-8563
▁configuration	-8564
ete	-8565
days	-8566
organ	-8567
▁Advent	-8568
▁choosing	-8569
▁resident	-8570
▁signature	-8571
Box	-8572
▁hur	-8573
nWill	-8574
▁Inte	-8575
▁electrical	-8576
▁Ah	-8577
▁myst	-8578
package	-8579
▁signal	-8580
▁Seattle	-8581
▁northern	-8582
Controller	-8583
build	-8584
▁Auto	-8585
▁Josh	-8586
▁Oregon	-8587
▁exposed	-8588
▁workshop	-8589
HE	-8590
▁Dub	-8591
▁Imp	-8592
▁Ross	-8593
aly	-8594
▁CR	-8595
amps	-8596
▁Ast	-8597
▁Miami	-8598
▁blocks	-8599
▁rating	-8600
ART	-8601
▁Kids	-8602
irtual	-8603
▁lucky	-8604
▁limits	-8605
▁viewed	-8606
▁Culture	-8607
▁Case	-8608
iology	-8609
▁Major	-8610
▁Still	-8611
▁Select	-8612
ori	-8613
acon	-8614
Trans	-8615
ishop	-8616
▁army	-8617
▁Death	-8618
▁Member	-8619
▁emissions	-8620
sex	-8621
ounded	-8622
▁printed	-8623
▁expanded	-8624
▁personnel	-8625
▁Ros	-8626
▁Yet	-8627
▁prize	-8628
▁Movie	-8629
▁ocean	-8630
▁Transport	-8631
▁contribution	-8632
ika	-8633
▁CB	-8634
olly	-8635
achusetts	-8636
▁Gh	-8637
ashes	-8638
▁fraud	-8639
▁talked	-8640
▁killing	-8641
▁directory	-8642
▁availability	-8643
yr	-8644
▁fro	-8645
▁pit	-8646
Property	-8647
▁certificate	-8648
orce	-8649
▁DVD	-8650
nEven	-8651
▁emerging	-8652
▁Keep	-8653
▁Trade	-8654
cul	-8655
▁percentage	-8656
uana	-8657
ichael	-8658
▁exists	-8659
▁stages	-8660
▁depends	-8661
isms	-8662
eland	-8663
iously	-8664
dep	-8665
olds	-8666
▁Never	-8667
▁breaking	-8668
▁strongly	-8669
▁combat	-8670
friendly	-8671
▁highlights	-8672
IST	-8673
chers	-8674
▁magic	-8675
▁meets	-8676
▁phones	-8677
▁reaching	-8678
▁resistance	-8679
▁()	-8680
▁Toy	-8681
nStud	-8682
ureau	-8683
▁cuts	-8684
lessly	-8685
▁Spirit	-8686
▁consumption	-8687
▁preparation	-8688
inos	-8689
liers	-8690
▁sculpt	-8691
▁Regional	-8692
▁attractive	-8693
Pr	-8694
▁Les	-8695
▁escape	-8696
▁inches	-8697
▁Natural	-8698
▁segment	-8699
nTwo	-8700
pson	-8701
object	-8702
orship	-8703
▁Drive	-8704
ificial	-8705
▁twenty	-8706
▁vacation	-8707
bell	-8708
oker	-8709
▁Hope	-8710
▁Foreign	-8711
json	-8712
mann	-8713
world	-8714
▁Cele	-8715
▁Type	-8716
▁Albert	-8717
▁displayed	-8718
▁Az	-8719
▁Pa	-8720
▁Roy	-8721
▁Spr	-8722
▁genu	-8723
▁Beaut	-8724
▁pulled	-8725
▁writes	-8726
▁managers	-8727
▁Authority	-8728
▁employers	-8729
▁hang	-8730
▁poverty	-8731
Mod	-8732
ORE	-8733
▁McD	-8734
▁Stone	-8735
graduate	-8736
▁sensitive	-8737
array	-8738
▁stim	-8739
reedom	-8740
▁exceed	-8741
▁focusing	-8742
Us	-8743
(),	-8744
▁Moh	-8745
▁bat	-8746
ecurity	-8747
▁clothes	-8748
aud	-8749
max	-8750
▁een	-8751
▁Site	-8752
▁religion	-8753
▁phr	-8754
▁Afghan	-8755
▁equity	-8756
otype	-8757
▁laid	-8758
ieties	-8759
▁shouldn	-8760
▁coronavirus	-8761
▁documentary	-8762
ocs	-8763
▁kit	-8764
▁attra	-8765
▁walked	-8766
▁overwhel	-8767
mic	-8768
oln	-8769
▁aband	-8770
service	-8771
▁Winter	-8772
▁observ	-8773
▁focuses	-8774
▁engaging	-8775
▁subjects	-8776
[\"	-8777
▁ru	-8778
▁Jane	-8779
▁para	-8780
▁Greek	-8781
▁algorith	-8782
▁involves	-8783
▁studying	-8784
nCopyright	-8785
▁somewhere	-8786
Sub	-8787
▁iP	-8788
▁puts	-8789
▁liked	-8790
▁expenses	-8791
▁approaches	-8792
▁wur	-8793
asant	-8794
▁Note	-8795
▁reaction	-8796
▁ultimate	-8797
▁rice	-8798
▁trailer	-8799
▁delivering	-8800
bean	-8801
▁outcome	-8802
nReg	-8803
▁Sem	-8804
▁talented	-8805
nOf	-8806
▁semi	-8807
▁enables	-8808
▁upgrade	-8809
▁commonly	-8810
▁controlled	-8811
nWho	-8812
▁hate	-8813
▁crazy	-8814
▁Dallas	-8815
▁attempts	-8816
▁franchise	-8817
Table	-8818
▁hurt	-8819
▁Learn	-8820
▁stead	-8821
▁teeth	-8822
▁recycl	-8823
▁relative	-8824
▁WW	-8825
etary	-8826
leton	-8827
▁gear	-8828
acular	-8829
reated	-8830
▁affil	-8831
▁slowly	-8832
▁Fa	-8833
▁Ont	-8834
▁Rand	-8835
aga	-8836
▁Austin	-8837
▁immigration	-8838
▁:=	-8839
▁pp	-8840
only	-8841
▁src	-8842
▁vibr	-8843
▁Though	-8844
▁assume	-8845
▁deeply	-8846
▁cabinet	-8847
▁Governor	-8848
Net	-8849
itu	-8850
nSe	-8851
▁DO	-8852
▁entering	-8853
esc	-8854
rep	-8855
otte	-8856
▁BBC	-8857
▁Was	-8858
issue	-8859
▁Premier	-8860
▁soldiers	-8861
▁maintaining	-8862
lie	-8863
van	-8864
block	-8865
current	-8866
▁Wisconsin	-8867
▁exceptional	-8868
/*	-8869
qq	-8870
▁stuck	-8871
▁necessarily	-8872
▁</	-8873
\"\"	-8874
umni	-8875
▁moder	-8876
▁compete	-8877
▁FA	-8878
nHis	-8879
show	-8880
▁bid	-8881
▁cute	-8882
▁scores	-8883
▁evolution	-8884
▁traveling	-8885
Att	-8886
▁PA	-8887
ouri	-8888
▁jack	-8889
▁Princ	-8890
▁lists	-8891
▁Environmental	-8892
▁Youth	-8893
▁quote	-8894
including	-8895
▁declared	-8896
▁requirement	-8897
▁Did	-8898
option	-8899
▁adopted	-8900
iva	-8901
▁Du	-8902
▁Age	-8903
▁rug	-8904
Query	-8905
▁Belg	-8906
▁waters	-8907
▁dipl	-8908
▁alive	-8909
▁voted	-8910
▁courts	-8911
▁Village	-8912
▁speakers	-8913
ku	-8914
mart	-8915
stood	-8916
▁aimed	-8917
ennessee	-8918
▁conservation	-8919
Do	-8920
edge	-8921
▁hip	-8922
anted	-8923
▁Core	-8924
Stream	-8925
▁folder	-8926
▁sew	-8927
▁Kelly	-8928
▁noise	-8929
▁visible	-8930
▁athletes	-8931
▁employer	-8932
Select	-8933
summary	-8934
▁flying	-8935
uten	-8936
▁ble	-8937
default	-8938
acht	-8939
hour	-8940
▁birds	-8941
▁Annual	-8942
▁parameters	-8943
▁regardless	-8944
step	-8945
wick	-8946
Content	-8947
▁permit	-8948
uties	-8949
▁overse	-8950
▁arrival	-8951
▁interact	-8952
▁prospect	-8953
adi	-8954
unes	-8955
icity	-8956
▁bass	-8957
▁piano	-8958
▁complicated	-8959
img	-8960
▁Tro	-8961
▁Brother	-8962
▁feelings	-8963
GO	-8964
hol	-8965
▁Arm	-8966
▁Dam	-8967
▁bands	-8968
▁instant	-8969
▁Therefore	-8970
▁opposition	-8971
▁communicate	-8972
▁cul	-8973
first	-8974
scale	-8975
ifting	-8976
▁Limited	-8977
▁falling	-8978
▁Atlanta	-8979
▁Matthew	-8980
▁introduce	-8981
ceived	-8982
ections	-8983
▁LED	-8984
otted	-8985
▁Holy	-8986
ronics	-8987
▁surve	-8988
▁actress	-8989
▁temporary	-8990
▁jur	-8991
▁User	-8992
rolling	-8993
▁somewhat	-8994
nYes	-8995
▁kne	-8996
▁Pers	-8997
Source	-8998
▁correctly	-8999
vi	-9000
▁Bow	-9001
▁bare	-9002
▁vert	-9003
▁Short	-9004
▁asset	-9005
________	-9006
dam	-9007
▁Jam	-9008
▁ads	-9009
gment	-9010
season	-9011
▁Study	-9012
athered	-9013
▁Economic	-9014
▁entitled	-9015
rl	-9016
▁Oil	-9017
▁Object	-9018
▁whilst	-9019
▁distributed	-9020
▁institution	-9021
onna	-9022
▁cha	-9023
▁hel	-9024
click	-9025
▁cake	-9026
▁raising	-9027
▁Alliance	-9028
▁um	-9029
▁ceiling	-9030
▁improvements	-9031
oca	-9032
▁gap	-9033
ischen	-9034
▁legacy	-9035
▁Patrick	-9036
▁insights	-9037
▁functional	-9038
ruits	-9039
▁Grow	-9040
▁contracts	-9041
▁containing	-9042
▁od	-9043
rape	-9044
▁nob	-9045
product	-9046
▁discrim	-9047
▁municip	-9048
PN	-9049
lers	-9050
ighth	-9051
▁Shop	-9052
ousing	-9053
▁Mater	-9054
▁Ocean	-9055
▁carrying	-9056
▁exploring	-9057
▁streaming	-9058
Mar	-9059
SON	-9060
zes	-9061
oose	-9062
▁Mit	-9063
▁thin	-9064
▁Syria	-9065
▁Korean	-9066
ibraries	-9067
▁Netflix	-9068
▁chances	-9069
▁sentence	-9070
rac	-9071
abetes	-9072
uba	-9073
▁tip	-9074
.\""}	-9075
Param	-9076
▁Iowa	-9077
Wind	-9078
nArt	-9079
erning	-9080
▁powers	-9081
▁themes	-9082
▁representative	-9083
usal	-9084
mates	-9085
▁Portug	-9086
▁comparison	-9087
UD	-9088
eck	-9089
▁tone	-9090
▁buyers	-9091
▁Despite	-9092
▁musicians	-9093
apse	-9094
roit	-9095
▁Gro	-9096
▁gym	-9097
▁Software	-9098
▁strengthen	-9099
EF	-9100
},	-9101
owered	-9102
source	-9103
▁accord	-9104
▁liquid	-9105
▁desired	-9106
▁superior	-9107
▁specified	-9108
cm	-9109
iffs	-9110
raid	-9111
Point	-9112
▁vess	-9113
screen	-9114
▁colon	-9115
▁western	-9116
▁Attorney	-9117
▁residence	-9118
▁Massachusetts	-9119
▁hole	-9120
▁Steel	-9121
▁negoti	-9122
▁literally	-9123
▁compensation	-9124
▁breast	-9125
▁compat	-9126
▁amounts	-9127
▁reveals	-9128
CR	-9129
itis	-9130
ressed	-9131
▁votes	-9132
▁swimming	-9133
▁cooperation	-9134
▁->	-9135
sche	-9136
uous	-9137
▁dans	-9138
▁strange	-9139
▁Independ	-9140
▁requested	-9141
▁presidential	-9142
▁CP	-9143
abling	-9144
▁Kansas	-9145
▁preparing	-9146
▁Gree	-9147
▁cock	-9148
ijuana	-9149
▁Lewis	-9150
▁fiction	-9151
▁retired	-9152
▁signing	-9153
▁fundamental	-9154
iot	-9155
encing	-9156
▁Delhi	-9157
ordinary	-9158
▁Islamic	-9159
▁listing	-9160
▁everywhere	-9161
▁personality	-9162
nPer	-9163
▁Hur	-9164
after	-9165
ocial	-9166
▁merch	-9167
▁reveal	-9168
▁protocol	-9169
▁sufficient	-9170
▁acquisition	-9171
▁tact	-9172
▁Things	-9173
▁Anthony	-9174
▁staying	-9175
▁representing	-9176
lett	-9177
▁conver	-9178
News	-9179
▁pin	-9180
▁Lady	-9181
▁forum	-9182
▁crusher	-9183
▁pointed	-9184
Fr	-9185
abs	-9186
▁bow	-9187
phones	-9188
▁Bible	-9189
▁absor	-9190
▁iconic	-9191
▁targeted	-9192
vironments	-9193
yes	-9194
▁<<	-9195
gate	-9196
izza	-9197
▁Covid	-9198
▁overs	-9199
▁releases	-9200
▁behaviour	-9201
▁vulnerable	-9202
Size	-9203
▁Talk	-9204
▁Forum	-9205
▁blank	-9206
▁meals	-9207
▁Defense	-9208
▁gorgeous	-9209
▁Cambridge	-9210
▁hospitals	-9211
▁completion	-9212
▁operational	-9213
di	-9214
|\	-9215
onda	-9216
▁Liter	-9217
▁Anderson	-9218
▁absolute	-9219
▁generations	-9220
▁photographs	-9221
▁temperatures	-9222
amer	-9223
rett	-9224
▁Nob	-9225
▁Sale	-9226
▁keys	-9227
▁statistics	-9228
rait	-9229
▁dust	-9230
▁obst	-9231
▁worker	-9232
▁Process	-9233
▁contributed	-9234
▁explo	-9235
▁developer	-9236
\"]	-9237
▁consideration	-9238
▁Text	-9239
▁mile	-9240
▁ther	-9241
▁equivalent	-9242
▁consultation	-9243
dem	-9244
▁Own	-9245
▁Rub	-9246
▁Mand	-9247
▁stable	-9248
▁packages	-9249
▁discovery	-9250
▁iOS	-9251
▁chairs	-9252
▁promoting	-9253
▁gent	-9254
anning	-9255
▁stood	-9256
osystem	-9257
erent	-9258
Button	-9259
embers	-9260
▁neuro	-9261
▁criteria	-9262
▁addresses	-9263
▁struggling	-9264
oop	-9265
▁overl	-9266
▁samples	-9267
$.	-9268
aura	-9269
nSpe	-9270
▁Greg	-9271
▁sectors	-9272
abb	-9273
Color	-9274
adesh	-9275
itarian	-9276
▁hotels	-9277
tech	-9278
aceut	-9279
▁rely	-9280
ederation	-9281
FO	-9282
IVE	-9283
▁Li	-9284
oked	-9285
▁CON	-9286
▁lad	-9287
▁Khan	-9288
▁desk	-9289
▁sections	-9290
▁secondary	-9291
DC	-9292
UE	-9293
igenous	-9294
▁prohib	-9295
▁threats	-9296
▁interviews	-9297
▁Circ	-9298
▁gate	-9299
▁moist	-9300
▁deeper	-9301
▁infect	-9302
▁Olympic	-9303
▁resulted	-9304
▁stronger	-9305
▁whenever	-9306
End	-9307
▁?\	-9308
▁Past	-9309
▁orient	-9310
▁enthusi	-9311
▁collections	-9312
▁__	-9313
▁guilty	-9314
▁visits	-9315
▁wireless	-9316
nJan	-9317
plug	-9318
▁Number	-9319
▁contained	-9320
▁principal	-9321
▁championship	-9322
bra	-9323
▁Drag	-9324
reation	-9325
▁latter	-9326
▁watched	-9327
▁clothing	-9328
VI	-9329
▁transmission	-9330
otive	-9331
▁Build	-9332
▁pursue	-9333
▁rapidly	-9334
▁graphics	-9335
▁objective	-9336
iatric	-9337
▁flights	-9338
▁Heritage	-9339
▁promotion	-9340
▁headed	-9341
▁proved	-9342
▁Planning	-9343
conf	-9344
eted	-9345
▁Saudi	-9346
▁alleg	-9347
▁Cancer	-9348
▁Schools	-9349
▁dismiss	-9350
▁nations	-9351
▁maintained	-9352
▁Der	-9353
▁aged	-9354
▁knock	-9355
▁resid	-9356
▁dental	-9357
oli	-9358
mers	-9359
bound	-9360
▁Corn	-9361
▁codes	-9362
▁Israeli	-9363
▁winners	-9364
▁attending	-9365
%,	-9366
▁bact	-9367
▁Treat	-9368
chestra	-9369
▁enjoying	-9370
otton	-9371
acious	-9372
▁Front	-9373
▁Which	-9374
▁falls	-9375
▁Channel	-9376
GE	-9377
▁EP	-9378
▁cm	-9379
▁Stadium	-9380
▁banking	-9381
aceutical	-9382
▁operator	-9383
▁unexpected	-9384
card	-9385
▁Navy	-9386
▁neut	-9387
▁Years	-9388
▁concepts	-9389
▁passengers	-9390
▁supporters	-9391
aws	-9392
nTe	-9393
find	-9394
▁bomb	-9395
▁hell	-9396
▁lake	-9397
everal	-9398
▁compr	-9399
▁combine	-9400
▁interactive	-9401
udes	-9402
▁Pin	-9403
▁Ten	-9404
ouver	-9405
▁Article	-9406
roduction	-9407
▁Chairman	-9408
Dis	-9409
)."}	-9410
abil	-9411
▁Assembly	-9412
▁Relations	-9413
▁formation	-9414
aha	-9415
nEar	-9416
maker	-9417
▁Mother	-9418
▁recruit	-9419
▁ministry	-9420
▁Professional	-9421
▁Unfortunately	-9422
phan	-9423
roke	-9424
wich	-9425
▁react	-9426
▁voting	-9427
▁heavily	-9428
▁campaigns	-9429
nReferences	-9430
oup	-9431
inyl	-9432
wall	-9433
▁bags	-9434
▁Events	-9435
▁Website	-9436
ln	-9437
ados	-9438
▁sin	-9439
apolis	-9440
▁pride	-9441
▁finger	-9442
CP	-9443
nab	-9444
sch	-9445
ding	-9446
▁USB	-9447
▁boxes	-9448
▁abroad	-9449
▁Quality	-9450
rows	-9451
context	-9452
▁lesson	-9453
▁province	-9454
▁graduated	-9455
▁Performance	-9456
▁Communications	-9457
incoln	-9458
▁Estate	-9459
▁addressed	-9460
izon	-9461
rooms	-9462
onymous	-9463
▁PhD	-9464
▁Pit	-9465
Build	-9466
oming	-9467
proof	-9468
ecause	-9469
▁Dutch	-9470
▁clock	-9471
▁podcast	-9472
▁phenomen	-9473
▁computers	-9474
nst	-9475
elfare	-9476
omatic	-9477
▁checking	-9478
▁preferred	-9479
▁workplace	-9480
▁functionality	-9481
oven	-9482
yles	-9483
▁Balt	-9484
▁Dave	-9485
▁trips	-9486
\\\\	-9487
pense	-9488
▁mood	-9489
▁Round	-9490
▁roots	-9491
▁anyway	-9492
OK	-9493
eah	-9494
▁adj	-9495
▁Prim	-9496
istent	-9497
▁cyber	-9498
▁molec	-9499
▁singing	-9500
▁Solutions	-9501
▁discussions	-9502
eli	-9503
has	-9504
▁gay	-9505
▁privile	-9506
▁venture	-9507
▁suggestions	-9508
)(	-9509
rt	-9510
▁Buff	-9511
▁Bush	-9512
▁Unit	-9513
▁targets	-9514
▁apparently	-9515
tml	-9516
▁Eag	-9517
▁Mrs	-9518
▁Clark	-9519
▁healing	-9520
ibl	-9521
hatt	-9522
event	-9523
▁bold	-9524
through	-9525
ologists	-9526
▁participating	-9527
rets	-9528
▁Allen	-9529
▁Simon	-9530
▁wooden	-9531
▁neither	-9532
▁utility	-9533
▁entrance	-9534
▁evaluation	-9535
bered	-9536
imize	-9537
▁boot	-9538
plates	-9539
▁agenda	-9540
▁equally	-9541
▁observed	-9542
▁thousand	-9543
ped	-9544
offs	-9545
tery	-9546
▁legs	-9547
▁Final	-9548
▁pushed	-9549
▁unusual	-9550
▁assigned	-9551
▁environments	-9552
uri	-9553
▁Tit	-9554
amics	-9555
▁Print	-9556
▁intellectual	-9557
▁representatives	-9558
Call	-9559
avas	-9560
avor	-9561
ndef	-9562
▁Tok	-9563
erenc	-9564
▁grateful	-9565
▁wildlife	-9566
▁obviously	-9567
live	-9568
nMan	-9569
▁Ideas	-9570
perties	-9571
▁Battle	-9572
▁lifetime	-9573
▁pleasure	-9574
nw	-9575
aba	-9576
pop	-9577
abama	-9578
ownload	-9579
riculum	-9580
▁breath	-9581
▁dollar	-9582
▁survive	-9583
▁printing	-9584
cor	-9585
ango	-9586
▁True	-9587
▁jail	-9588
nDespite	-9589
▁developments	-9590
Reg	-9591
Group	-9592
haust	-9593
▁Consult	-9594
▁dialogue	-9595
▁nil	-9596
▁Grant	-9597
nBefore	-9598
▁Represent	-9599
elli	-9600
nFind	-9601
▁explan	-9602
▁loving	-9603
▁Machine	-9604
<!	-9605
iah	-9606
▁Chel	-9607
▁Mess	-9608
orneys	-9609
▁harder	-9610
protected	-9611
zi	-9612
▁Ban	-9613
ouses	-9614
▁wider	-9615
▁removal	-9616
▁licensed	-9617
▁Tennessee	-9618
cut	-9619
▁Pod	-9620
▁Raj	-9621
aysia	-9622
uters	-9623
▁Jason	-9624
▁swing	-9625
request	-9626
▁oldest	-9627
▁coaching	-9628
▁narrative	-9629
▁regulatory	-9630
▁coc	-9631
▁tox	-9632
isted	-9633
▁bone	-9634
▁Marsh	-9635
▁Without	-9636
▁automatic	-9637
leting	-9638
▁Creek	-9639
▁deleg	-9640
▁fired	-9641
▁Atlantic	-9642
▁Philippines	-9643
▁alter	-9644
▁bills	-9645
▁actively	-9646
▁responses	-9647
▁concerning	-9648
▁sustainability	-9649
apache	-9650
hether	-9651
endment	-9652
▁ranked	-9653
▁routine	-9654
▁Language	-9655
uv	-9656
leep	-9657
onia	-9658
▁auf	-9659
▁ham	-9660
▁nin	-9661
▁Pharm	-9662
▁Nether	-9663
▁Server	-9664
▁BY	-9665
high	-9666
isode	-9667
nView	-9668
▁gall	-9669
▁node	-9670
▁Early	-9671
jection	-9672
▁existence	-9673
▁settlement	-9674
▁Additionally	-9675
▁amid	-9676
▁desc	-9677
ellite	-9678
▁oblig	-9679
process	-9680
▁Ontario	-9681
▁dramatic	-9682
▁lets	-9683
▁drinks	-9684
▁Electric	-9685
▁admitted	-9686
Me	-9687
INE	-9688
igs	-9689
▁EX	-9690
omin	-9691
▁Very	-9692
▁peak	-9693
angers	-9694
▁Trail	-9695
▁throws	-9696
▁arguments	-9697
Co	-9698
hist	-9699
▁frag	-9700
▁seed	-9701
▁trem	-9702
▁SH	-9703
ikip	-9704
nInst	-9705
▁fault	-9706
▁squad	-9707
ropical	-9708
▁muscle	-9709
quarters	-9710
▁intense	-9711
▁naturally	-9712
▁workshops	-9713
▁transformation	-9714
})\	-9715
elson	-9716
ument	-9717
▁Marine	-9718
▁cameras	-9719
▁applicable	-9720
▁Six	-9721
▁tie	-9722
▁occurs	-9723
▁audiences	-9724
▁infection	-9725
fs	-9726
agu	-9727
▁HIV	-9728
orous	-9729
▁Indiana	-9730
bu	-9731
mi	-9732
▁IM	-9733
nRel	-9734
▁McG	-9735
▁tum	-9736
▁exit	-9737
▁bunch	-9738
▁decent	-9739
▁mixture	-9740
▁theater	-9741
▁Personal	-9742
pi	-9743
vard	-9744
▁Agric	-9745
▁Plant	-9746
▁drives	-9747
▁decline	-9748
▁FL	-9749
▁roy	-9750
▁fewer	-9751
▁spots	-9752
▁anxiety	-9753
▁indicate	-9754
owed	-9755
nWell	-9756
ulator	-9757
▁hook	-9758
▁Being	-9759
▁smile	-9760
project	-9761
▁losses	-9762
▁grounds	-9763
▁applying	-9764
▁expanding	-9765
nMe	-9766
vens	-9767
▁Gil	-9768
nEach	-9769
▁weren	-9770
PE	-9771
ITY	-9772
▁myth	-9773
▁Legal	-9774
▁Doctor	-9775
▁Having	-9776
▁Method	-9777
▁Exchange	-9778
▁philosophy	-9779
▁Apr	-9780
▁Inf	-9781
▁dad	-9782
▁Worth	-9783
android	-9784
▁greatly	-9785
▁passionate	-9786
▁accessories	-9787
▁transactions	-9788
Can	-9789
call	-9790
▁Motor	-9791
▁Indones	-9792
nGe	-9793
▁NBA	-9794
▁tap	-9795
▁drag	-9796
▁crimes	-9797
▁frustr	-9798
▁powder	-9799
▁sevent	-9800
▁Mission	-9801
▁describes	-9802
bass	-9803
▁Tai	-9804
chain	-9805
tains	-9806
▁Golf	-9807
▁loyal	-9808
▁das	-9809
▁Bath	-9810
▁prev	-9811
▁flour	-9812
▁Section	-9813
rer	-9814
▁EN	-9815
oust	-9816
ummer	-9817
▁dump	-9818
▁nights	-9819
▁render	-9820
ikipedia	-9821
▁Vietnam	-9822
▁minimal	-9823
▁resolve	-9824
▁continuous	-9825
▁journalist	-9826
Fl	-9827
iscal	-9828
piece	-9829
iem	-9830
nal	-9831
xit	-9832
google	-9833
scribe	-9834
▁inspe	-9835
▁prest	-9836
▁resume	-9837
▁brothers	-9838
oda	-9839
Line	-9840
▁Barn	-9841
▁Cape	-9842
▁hosts	-9843
▁consent	-9844
ILL	-9845
dict	-9846
▁god	-9847
▁sed	-9848
▁trim	-9849
▁heading	-9850
\"/	-9851
earn	-9852
fess	-9853
oenix	-9854
nUnder	-9855
▁Level	-9856
▁exclus	-9857
▁funded	-9858
▁distingu	-9859
▁Sometimes	-9860
cz	-9861
elta	-9862
ibli	-9863
▁gal	-9864
▁steam	-9865
▁Galaxy	-9866
WS	-9867
olk	-9868
▁Jay	-9869
▁eggs	-9870
▁Hills	-9871
▁prayer	-9872
▁servers	-9873
▁episodes	-9874
▁essentially	-9875
▁SD	-9876
▁Han	-9877
ithub	-9878
semble	-9879
▁casual	-9880
▁Melbourne	-9881
▁ownership	-9882
▁celebrated	-9883
unn	-9884
frame	-9885
▁Hawai	-9886
▁Share	-9887
▁Standard	-9888
nLa	-9889
▁Liver	-9890
▁reven	-9891
▁	-9892
e	-9893
t	-9894
a	-9895
n	-9896
o	-9897
i	-9898
r	-9899
s	-9900
l	-9901
h	-9902
d	-9903
u	-9904
c	-9905
m	-9906
p	-9907
f	-9908
g	-9909
y	-9910
\	-9911
w	-9912
b	-9913
.	-9914
,	-9915
v	-9916
0	-9917
k	-9918
"	-9919
T	-9920
S	-9921
1	-9922
A	-9923
I	-9924
2	-9925
C	-9926
4	-9927
'	-9928
-	-9929
x	-9930
3	-9931
M	-9932
P	-9933
B	-9934
D	-9935
:	-9936
E	-9937
R	-9938
W	-9939
)	-9940
(	-9941
H	-9942
N	-9943
F	-9944
L	-9945
O	-9946
9	-9947
G	-9948
5	-9949
j	-9950
/	-9951
z	-9952
6	-9953
8	-9954
U	-9955
q	-9956
J	-9957
7	-9958
{	-9959
}	-9960
V	-9961
K	-9962
;	-9963
=	-9964
Y	-9965
_	-9966
?	-9967
!	-9968
$	-9969
>	-9970
<	-9971
*	-9972
&	-9973
[	-9974
]	-9975
Q	-9976
%	-9977
|	-9978
X	-9979
